<pad>	0
<unk>	0
<s>	0
</s>	0
.	-3.04087
▁the	-3.0925
,	-3.47298
▁and	-3.54232
▁a	-3.75274
▁to	-3.81649
▁was	-4.06489
▁in	-4.33709
▁of	-4.40811
▁I	-4.41047
▁is	-4.52755
▁The	-4.57911
▁for	-4.63605
▁we	-4.75041
▁hotel	-4.79703
'	-4.83892
▁it	-4.84105
▁room	-4.94365
▁at	-4.95923
▁were	-4.99692
▁you	-5.00696
▁with	-5.0736
s	-5.09442
▁that	-5.09698
▁on	-5.10542
▁but	-5.12629
▁We	-5.20476
▁very	-5.20997
▁not	-5.30347
▁had	-5.30902
▁this	-5.37372
▁are	-5.39219
t	-5.4073
▁our	-5.43082
▁have	-5.46423
▁from	-5.54373
▁(	-5.57603
▁there	-5.63719
!	-5.667
▁as	-5.67275
▁be	-5.73774
▁all	-5.77644
▁so	-5.78299
▁stay	-5.79351
-	-5.79371
▁they	-5.79862
▁great	-5.8215
▁staff	-5.86621
▁my	-5.87137
▁would	-5.87159
▁good	-5.90175
▁-	-5.90924
▁one	-6.04391
▁us	-6.06744
▁rooms	-6.08954
▁which	-6.11024
▁out	-6.11462
)	-6.11479
▁nice	-6.12045
▁an	-6.18121
▁if	-6.18391
▁It	-6.18696
▁get	-6.20396
▁or	-6.21225
▁just	-6.2358
▁clean	-6.24647
▁about	-6.27226
▁stayed	-6.27314
▁time	-6.28144
▁location	-6.28463
▁night	-6.28903
▁only	-6.2936
▁no	-6.31297
▁up	-6.31732
▁can	-6.35279
▁service	-6.36692
▁by	-6.38608
▁breakfast	-6.4009
▁day	-6.4186
▁when	-6.46043
▁did	-6.50987
▁like	-6.51386
▁also	-6.52855
▁pool	-6.53163
▁here	-6.53731
▁other	-6.56002
▁your	-6.56123
▁well	-6.57817
▁really	-6.58912
▁could	-6.59037
▁back	-6.59092
▁place	-6.59606
▁some	-6.60116
▁will	-6.60992
▁more	-6.62217
▁area	-6.62663
▁me	-6.63526
▁small	-6.64974
▁go	-6.65099
▁There	-6.66307
▁friendly	-6.67345
▁walk	-6.68151
▁again	-6.69413
▁This	-6.70878
/	-6.70891
▁2	-6.71966
▁food	-6.73762
▁than	-6.77472
...	-6.78959
▁helpful	-6.80785
▁bed	-6.8138
).	-6.82442
▁do	-6.82863
▁two	-6.85389
▁much	-6.88154
▁even	-6.88877
▁didn	-6.88888
▁floor	-6.89164
▁has	-6.89223
▁little	-6.8927
▁been	-6.89692
▁desk	-6.89868
▁bathroom	-6.89948
▁comfortable	-6.89968
▁got	-6.90566
▁what	-6.91148
▁people	-6.91548
:	-6.93025
▁view	-6.94112
▁front	-6.94849
▁beach	-6.95046
▁around	-6.954
▁"	-6.9619
▁their	-6.96241
▁They	-6.96623
▁My	-6.97015
▁after	-6.98912
▁Hotel	-6.99948
▁first	-7.0179
▁next	-7.01864
▁resort	-7.03325
▁3	-7.03614
▁them	-7.03664
▁too	-7.0446
"	-7.05078
▁because	-7.05517
▁any	-7.05959
▁free	-7.06333
▁check	-7.06699
▁recommend	-7.07192
▁right	-7.08955
▁nights	-7.09273
▁5	-7.09745
▁restaurants	-7.10636
▁restaurant	-7.11012
▁down	-7.11126
▁If	-7.12213
▁bar	-7.12995
▁over	-7.13052
▁best	-7.13327
▁excellent	-7.14767
▁hotels	-7.16969
▁price	-7.17259
▁away	-7.176
▁trip	-7.17805
▁water	-7.17834
▁most	-7.18397
▁went	-7.19015
▁who	-7.1904
▁want	-7.19664
▁way	-7.20672
▁many	-7.22117
▁made	-7.22756
▁off	-7.22921
▁found	-7.23206
▁close	-7.23232
d	-7.23341
▁bit	-7.23461
▁every	-7.23748
▁minutes	-7.24824
▁don	-7.24838
▁few	-7.24884
▁i	-7.25451
▁Our	-7.26827
▁never	-7.27014
▁where	-7.27231
▁better	-7.28241
▁large	-7.28573
th	-7.28612
▁4	-7.29988
▁always	-7.30047
▁A	-7.30397
▁before	-7.31178
▁see	-7.31357
▁then	-7.31597
▁booked	-7.33135
▁street	-7.34081
▁shower	-7.34581
▁morning	-7.35626
▁lobby	-7.35934
▁quite	-7.36943
▁into	-7.3757
▁find	-7.37758
▁take	-7.37994
▁make	-7.38323
▁door	-7.38698
▁&	-7.39136
▁beautiful	-7.39496
▁city	-7.40383
▁walking	-7.41324
▁everything	-7.41697
▁use	-7.4262
▁say	-7.43165
▁need	-7.45938
▁though	-7.47196
▁beds	-7.47342
▁wonderful	-7.47452
▁going	-7.47516
▁days	-7.48011
▁experience	-7.48127
▁enough	-7.48395
▁quiet	-7.50375
▁definitely	-7.50555
▁big	-7.50963
▁told	-7.5098
m	-7.51844
▁being	-7.52003
▁etc	-7.52456
▁reviews	-7.53334
re	-7.53459
▁You	-7.53969
▁staying	-7.54249
▁lot	-7.54757
▁coffee	-7.55312
▁think	-7.55834
;	-7.5702
▁said	-7.57732
▁took	-7.58528
▁arrived	-7.59648
ve	-7.59659
▁he	-7.60134
▁old	-7.6022
▁through	-7.60709
▁problem	-7.60992
▁perfect	-7.63736
▁another	-7.6398
▁airport	-7.64375
▁asked	-7.64558
▁When	-7.64741
▁long	-7.65092
▁10	-7.65402
▁located	-7.65449
▁	-7.65604
▁sure	-7.65774
in	-7.65971
▁buffet	-7.66257
▁its	-7.66257
▁times	-7.66937
▁during	-7.69407
▁money	-7.69599
▁still	-7.69831
▁thing	-7.70366
▁noise	-7.70509
▁parking	-7.71075
▁left	-7.71622
▁while	-7.71691
▁am	-7.72787
▁each	-7.72791
▁easy	-7.72813
▁know	-7.73424
▁outside	-7.73798
▁bad	-7.73996
▁same	-7.74142
▁hot	-7.74378
▁enjoyed	-7.74494
▁feel	-7.74528
▁new	-7.75221
▁side	-7.75385
▁last	-7.75928
▁lovely	-7.76197
▁family	-7.76363
▁1	-7.76427
▁looking	-7.76462
),	-7.76711
▁But	-7.76895
▁pretty	-7.77154
▁station	-7.77602
▁husband	-7.77916
▁size	-7.78332
▁ever	-7.78367
?	-7.79713
▁loved	-7.80176
▁week	-7.80264
▁car	-7.80644
▁All	-7.8066
ing	-7.80726
▁main	-7.81398
▁distance	-7.81578
▁wasn	-7.81948
▁within	-7.82217
▁how	-7.82957
▁reception	-7.83174
▁things	-7.83378
▁wanted	-7.8343
▁near	-7.83663
▁kids	-7.83796
ed	-7.83969
▁suite	-7.84044
▁visit	-7.84067
▁early	-7.84547
▁Great	-7.84775
▁available	-7.84786
▁work	-7.84822
▁far	-7.8521
▁come	-7.85424
▁worth	-7.85439
▁spacious	-7.85565
▁pay	-7.85689
▁value	-7.85841
▁bus	-7.86649
▁internet	-7.87036
▁both	-7.87335
▁'	-7.87427
▁amazing	-7.87917
▁eat	-7.88464
▁dinner	-7.88495
▁open	-7.88766
▁top	-7.89918
▁used	-7.9005
▁return	-7.90712
▁expensive	-7.91123
▁couple	-7.91468
▁In	-7.91493
▁business	-7.91509
▁fantastic	-7.91531
▁came	-7.91824
▁guests	-7.91931
▁full	-7.91988
I	-7.92775
▁should	-7.92898
▁minute	-7.93205
▁fine	-7.93268
▁extremely	-7.93276
!!	-7.93334
▁extra	-7.9503
▁Overall	-7.9511
▁felt	-7.95583
▁Very	-7.95844
▁across	-7.95847
▁year	-7.96278
▁called	-7.96786
▁nothing	-7.96912
▁high	-7.97147
The	-7.97712
▁she	-7.98062
▁end	-7.98088
▁since	-7.98482
’	-7.98911
▁drinks	-7.99301
▁Also	-7.99814
▁shopping	-7.99964
▁As	-8.00472
▁star	-8.00603
▁towels	-8.00742
▁part	-8.00811
▁rate	-8.00944
▁per	-8.01176
▁short	-8.01203
▁TV	-8.01453
▁huge	-8.01719
▁home	-8.02149
▁property	-8.02311
▁So	-8.02339
▁although	-8.02711
▁able	-8.02759
▁something	-8.02953
▁checked	-8.03437
▁access	-8.0372
▁three	-8.03724
▁However	-8.03802
▁Room	-8.03883
▁hours	-8.03944
▁thought	-8.0403
▁building	-8.04159
▁wait	-8.0416
▁show	-8.0419
▁hour	-8.04249
▁look	-8.04281
▁needed	-8.04461
▁different	-8.05281
▁sleep	-8.06034
▁places	-8.06138
▁modern	-8.06156
▁No	-8.06239
▁Breakfast	-8.06591
▁And	-8.06633
▁without	-8.06817
▁evening	-8.0696
▁late	-8.0703
▁put	-8.07166
▁try	-8.0717
▁however	-8.073
▁paid	-8.07807
▁6	-8.08543
▁air	-8.08551
▁anything	-8.09061
▁!	-8.09442
▁getting	-8.09585
▁several	-8.10103
▁safe	-8.1036
▁having	-8.10387
▁looked	-8.10757
▁lots	-8.11044
▁until	-8.11253
▁help	-8.114
▁seemed	-8.1176
▁deal	-8.11807
ll	-8.12149
▁Vegas	-8.12351
▁especially	-8.12366
▁plenty	-8.1279
▁ask	-8.13135
▁expect	-8.13186
▁happy	-8.13293
▁pleasant	-8.13622
▁given	-8.14057
▁hard	-8.15229
▁her	-8.15273
▁fun	-8.15616
▁included	-8.15921
▁choice	-8.15928
▁wife	-8.16031
▁spent	-8.16164
and	-8.17014
▁second	-8.17275
▁Not	-8.17662
▁gave	-8.18088
▁own	-8.18206
▁strip	-8.18388
▁weekend	-8.18614
▁such	-8.18777
a	-8.18958
▁give	-8.19036
the	-8.19152
▁,	-8.19996
▁quality	-8.20121
▁After	-8.20548
▁For	-8.20888
▁else	-8.21736
e	-8.21738
▁call	-8.21935
▁vacation	-8.21962
▁charge	-8.22678
▁actually	-8.2321
▁anyone	-8.23506
▁On	-8.23671
▁person	-8.23772
▁couldn	-8.24256
▁itself	-8.24681
▁those	-8.24777
▁One	-8.25211
▁book	-8.25428
▁double	-8.25851
▁less	-8.26654
▁San	-8.2688
▁once	-8.27011
▁Rome	-8.27016
▁Staff	-8.27206
▁convenient	-8.27573
▁shuttle	-8.27672
▁taxi	-8.27977
▁stop	-8.29289
y	-8.29478
▁leave	-8.29725
▁probably	-8.30359
▁travel	-8.30502
▁New	-8.30535
ly	-8.30579
▁these	-8.30607
▁must	-8.30691
▁bedroom	-8.30866
▁space	-8.31478
▁may	-8.31527
▁offered	-8.3196
am	-8.32044
▁returned	-8.32809
▁fresh	-8.33115
▁balcony	-8.33487
▁standard	-8.33814
▁friends	-8.34015
▁highly	-8.34111
▁drink	-8.34609
▁enjoy	-8.3515
▁read	-8.35229
▁special	-8.35376
pm	-8.35534
▁cost	-8.36438
▁views	-8.36444
▁cold	-8.36451
▁Paris	-8.36505
▁years	-8.36628
▁ocean	-8.36939
▁line	-8.37009
▁busy	-8.37025
▁7	-8.37061
▁luggage	-8.37273
▁nearby	-8.37679
▁concierge	-8.38087
▁hear	-8.38488
▁ready	-8.38657
▁window	-8.39085
▁walked	-8.3925
we	-8.39753
▁corner	-8.39905
▁everyone	-8.40026
▁least	-8.40115
▁bath	-8.40776
....	-8.41046
▁15	-8.41473
▁his	-8.41702
▁downtown	-8.41819
▁Rooms	-8.41999
▁either	-8.42138
▁kept	-8.42185
▁center	-8.42187
▁shops	-8.42204
▁tub	-8.42297
▁Stayed	-8.42364
▁ate	-8.43028
▁decided	-8.43494
▁manager	-8.43546
▁problems	-8.44545
▁someone	-8.44704
▁train	-8.4486
▁park	-8.45132
▁cheap	-8.45219
▁arrival	-8.45419
▁20	-8.45531
▁does	-8.45574
▁blocks	-8.45647
▁town	-8.45759
▁offer	-8.46447
▁provided	-8.46538
▁kind	-8.46545
▁fact	-8.46604
▁8	-8.46755
▁whole	-8.47017
▁Just	-8.47286
▁almost	-8.47622
▁love	-8.47707
▁let	-8.4776
▁ok	-8.47967
▁saw	-8.48006
▁lounge	-8.48859
▁plus	-8.49294
▁chairs	-8.49786
▁spend	-8.49843
▁metro	-8.49853
▁due	-8.5014
▁block	-8.5066
--	-8.51006
▁table	-8.51154
▁absolutely	-8.51303
▁others	-8.5137
▁disappointed	-8.51406
!!!	-8.51555
▁expected	-8.51559
▁areas	-8.52017
▁now	-8.52133
▁four	-8.52272
▁noisy	-8.52731
▁decent	-8.52838
€	-8.52927
▁road	-8.53191
▁rather	-8.53422
▁children	-8.53429
▁wine	-8.53748
▁worked	-8.5393
▁booking	-8.54007
▁quick	-8.54379
▁He	-8.54641
▁warm	-8.54788
▁later	-8.55105
▁Square	-8.55212
▁casino	-8.55562
▁liked	-8.55564
▁amenities	-8.55593
▁keep	-8.55788
▁Location	-8.55904
▁central	-8.56154
▁pools	-8.56727
▁might	-8.56749
▁between	-8.57069
▁tried	-8.57424
▁light	-8.57483
▁spa	-8.57491
▁card	-8.58325
▁elevator	-8.58531
▁facilities	-8.58693
▁tour	-8.58734
▁Good	-8.59265
▁working	-8.59524
▁local	-8.59745
▁reasonable	-8.59947
▁windows	-8.59949
▁half	-8.60189
▁ride	-8.60429
▁--	-8.60454
▁along	-8.60461
▁care	-8.60636
▁Would	-8.60761
▁lunch	-8.6086
▁decor	-8.6101
▁Inn	-8.61818
▁done	-8.62169
▁under	-8.62568
▁making	-8.62732
▁What	-8.63407
▁wouldn	-8.6343
▁flight	-8.63775
▁phone	-8.63848
▁bars	-8.64082
▁average	-8.64084
▁including	-8.64196
▁Grand	-8.64211
▁prices	-8.64625
▁reservation	-8.64799
▁St	-8.64863
▁kitchen	-8.65062
â	-8.6517
▁dirty	-8.6522
▁upgraded	-8.65316
▁above	-8.65339
▁fridge	-8.65475
▁course	-8.65487
▁real	-8.65873
▁That	-8.65912
▁change	-8.66103
▁rest	-8.66422
▁fruit	-8.67172
▁certainly	-8.67194
▁king	-8.67204
▁tea	-8.67333
▁needs	-8.67916
▁mini	-8.68339
▁At	-8.68753
it	-8.69814
▁level	-8.6982
▁cool	-8.69904
▁guest	-8.70014
▁set	-8.70027
▁attractions	-8.70372
▁toilet	-8.70522
▁order	-8.70587
▁issue	-8.70839
▁why	-8.70949
▁upgrade	-8.71026
▁review	-8.71116
▁overall	-8.71199
▁30	-8.7141
▁entire	-8.71491
▁website	-8.71701
▁bring	-8.71784
▁English	-8.71927
▁anywhere	-8.72062
▁start	-8.72207
▁dining	-8.72451
▁him	-8.72519
▁point	-8.72544
▁coming	-8.73565
▁club	-8.73737
which	-8.74084
▁cleaned	-8.7455
▁grounds	-8.7465
▁site	-8.75086
▁number	-8.75387
▁awesome	-8.7579
▁bathrooms	-8.75814
▁basic	-8.76428
▁run	-8.76615
▁middle	-8.77351
▁complimentary	-8.77378
▁wall	-8.77932
▁housekeeping	-8.77966
▁tiny	-8.78256
▁major	-8.7834
▁waiting	-8.78358
▁served	-8.78678
▁centre	-8.78738
▁smell	-8.78959
▁non	-8.78988
▁seen	-8.79299
▁group	-8.79447
▁relaxing	-8.79879
▁decorated	-8.80061
▁Hilton	-8.80344
▁Park	-8.80359
▁loud	-8.80457
▁Nice	-8.80542
▁everywhere	-8.80556
▁bags	-8.80641
▁already	-8.80774
n	-8.80822
▁Check	-8.81396
▁daily	-8.81546
▁tell	-8.8167
▁9	-8.81696
▁five	-8.82299
▁seem	-8.82308
▁heard	-8.8358
▁selection	-8.83598
▁recently	-8.83605
▁trying	-8.83652
▁meal	-8.83741
▁mind	-8.83761
We	-8.84145
▁super	-8.84181
▁negative	-8.84237
▁name	-8.84277
▁pillows	-8.84308
▁single	-8.84453
▁reservations	-8.84479
▁cab	-8.84849
▁surprised	-8.84858
▁inside	-8.85164
▁sit	-8.85172
▁Beach	-8.85346
▁York	-8.85411
▁Although	-8.85691
▁music	-8.85695
▁received	-8.85804
▁past	-8.85809
▁mins	-8.85872
▁complaint	-8.86047
er	-8.86049
but	-8.8609
▁style	-8.86563
▁world	-8.86808
▁chose	-8.86886
▁Disney	-8.87021
▁key	-8.87119
▁holiday	-8.87337
▁checking	-8.87364
▁walls	-8.87451
▁poor	-8.87657
▁Service	-8.8786
▁request	-8.87878
▁fabulous	-8.88086
▁min	-8.8815
▁requested	-8.88686
▁store	-8.88733
▁isn	-8.88737
nd	-8.89061
▁She	-8.89443
▁valet	-8.89476
▁impressed	-8.8976
▁believe	-8.9003
▁tourist	-8.90149
▁twice	-8.90171
▁choose	-8.90248
▁drive	-8.90437
▁reading	-8.90468
▁shop	-8.90556
▁To	-8.91038
▁yet	-8.91118
▁comfy	-8.91214
▁doors	-8.91269
▁glass	-8.91359
▁efficient	-8.91514
▁flat	-8.91757
full	-8.91781
▁makes	-8.91845
▁brought	-8.9249
▁adequate	-8.92749
▁From	-8.92787
▁friend	-8.92809
▁cannot	-8.92849
▁11	-8.92999
▁tip	-8.93091
▁easily	-8.93186
▁recommended	-8.93219
i	-8.9327
▁taking	-8.93747
▁closed	-8.94263
(	-8.94315
▁Venice	-8.94533
▁upon	-8.94599
▁instead	-8.94632
▁rude	-8.94719
▁floors	-8.94899
▁de	-8.94924
no	-8.95232
▁turn	-8.95481
▁tv	-8.956
▁Las	-8.96206
▁daughter	-8.96237
▁welcome	-8.96594
▁won	-8.96631
▁Only	-8.96631
▁priced	-8.96696
▁public	-8.96727
▁touch	-8.9696
▁gym	-8.97089
S	-8.97157
▁afternoon	-8.97187
▁seems	-8.97255
▁24	-8.97554
▁customer	-8.97615
▁party	-8.97753
▁subway	-8.97988
▁delicious	-8.9835
▁nicely	-8.98549
▁atmosphere	-8.98596
▁ended	-8.98641
▁quickly	-8.98702
▁Club	-8.98724
▁Everything	-8.9889
▁weren	-8.9896
!)	-8.99011
▁dark	-8.99029
▁separate	-8.99035
▁moved	-8.9926
▁polite	-8.99467
▁fee	-8.99622
▁directly	-8.99688
▁12	-8.9974
▁taken	-8.999
▁turned	-9.00152
▁usually	-9.00186
Review	-9.00295
or	-9.00358
▁screen	-9.00607
▁crowded	-9.00611
▁menu	-9.00711
▁options	-9.00809
▁furniture	-9.00828
');	-9.00993
not	-9.01233
o	-9.01429
▁private	-9.01619
▁throughout	-9.01697
▁variety	-9.01794
▁Marriott	-9.02214
▁using	-9.02264
▁young	-9.02471
▁London	-9.02482
▁move	-9.02493
▁budget	-9.02538
▁pleased	-9.02561
▁spot	-9.0272
▁wedding	-9.02855
▁Even	-9.03303
▁watch	-9.0334
▁cleaning	-9.03399
▁First	-9.03657
▁soon	-9.03671
▁OK	-9.03768
▁entrance	-9.03902
▁Don	-9.03916
▁elevators	-9.03918
▁reason	-9.043
c	-9.04398
▁Street	-9.04416
▁previous	-9.04553
▁fast	-9.04571
▁wrong	-9.04585
▁doesn	-9.047
▁pick	-9.05209
▁slow	-9.05272
out	-9.05525
▁knew	-9.05557
▁Tower	-9.05767
▁speak	-9.05807
▁living	-9.06102
▁plan	-9.06299
▁complaints	-9.06468
▁fairly	-9.06521
▁professional	-9.06604
▁met	-9.06772
▁job	-9.06983
▁overlooking	-9.07051
▁maybe	-9.07252
▁NYC	-9.07572
▁head	-9.07604
▁eggs	-9.07718
▁While	-9.08016
▁immediately	-9.08095
▁activities	-9.08259
▁charged	-9.08293
▁La	-9.08306
▁sun	-9.0856
▁mentioned	-9.08662
▁traffic	-9.0878
▁helped	-9.09262
▁NOT	-9.09309
▁smaller	-9.09323
▁paying	-9.09642
▁sink	-9.09779
▁resorts	-9.10042
rd	-9.10262
▁except	-9.10317
▁buy	-9.10782
▁bottle	-9.10798
▁swimming	-9.10964
▁City	-9.11008
st	-9.11155
▁continental	-9.11215
▁tired	-9.11231
▁somewhere	-9.11316
▁sitting	-9.11394
▁worst	-9.11449
▁stuff	-9.11593
▁issues	-9.11753
▁credit	-9.12131
▁low	-9.12225
▁finally	-9.12577
▁behind	-9.12915
▁type	-9.13516
▁house	-9.13862
▁changed	-9.13903
▁courteous	-9.13936
▁didnt	-9.13971
▁relax	-9.14061
▁items	-9.14319
▁Yes	-9.14563
▁sheets	-9.14579
▁ice	-9.14742
▁Had	-9.14826
▁entertainment	-9.14873
▁man	-9.15058
▁carpet	-9.15082
C	-9.15155
▁Italian	-9.15179
▁luxury	-9.1518
▁often	-9.1549
▁tower	-9.15572
▁greeted	-9.15898
▁guess	-9.15902
▁Some	-9.16008
▁French	-9.16031
▁weather	-9.16147
▁complain	-9.16373
r	-9.16565
▁chair	-9.16619
▁opened	-9.16699
▁gorgeous	-9.16794
▁truly	-9.1688
night	-9.16891
▁Metro	-9.16974
▁slept	-9.17141
▁doing	-9.17152
▁son	-9.17296
▁member	-9.17425
▁eating	-9.17867
▁expectations	-9.1788
▁attentive	-9.1803
▁visiting	-9.18049
▁bother	-9.18302
▁hand	-9.18611
▁facing	-9.18847
▁swim	-9.18977
▁terrace	-9.19225
▁conference	-9.19249
▁unless	-9.19269
▁roof	-9.19302
▁system	-9.19349
▁management	-9.19377
▁Food	-9.19483
▁provide	-9.19567
▁simply	-9.19689
▁note	-9.2022
▁construction	-9.20662
▁guy	-9.20958
▁conditioning	-9.21038
▁heart	-9.21224
▁spoke	-9.2127
▁leaving	-9.21514
▁appointed	-9.21623
▁wish	-9.21713
▁favorite	-9.21848
▁looks	-9.21938
▁shows	-9.2227
▁live	-9.22324
▁cheaper	-9.22516
▁renovated	-9.2274
▁definately	-9.22754
▁standards	-9.22776
▁outstanding	-9.22821
▁meals	-9.22838
▁Excellent	-9.22867
▁Barcelona	-9.23044
▁Chicago	-9.23211
▁security	-9.23215
▁larger	-9.23447
▁break	-9.23449
▁weeks	-9.23666
▁completely	-9.23719
▁myself	-9.23802
▁case	-9.243
▁juice	-9.24404
▁euros	-9.24567
▁mention	-9.2462
▁Palace	-9.24682
▁understand	-9.2488
▁package	-9.24924
▁visited	-9.24963
▁possible	-9.24974
▁nicer	-9.25046
▁neighborhood	-9.25553
▁pricey	-9.25553
▁honeymoon	-9.26376
▁Internet	-9.26383
▁unit	-9.26424
▁limited	-9.26426
▁terrible	-9.26439
▁option	-9.26478
▁traveling	-9.26556
▁stairs	-9.26606
▁cruise	-9.26849
▁Bay	-9.26986
▁wifi	-9.26991
▁sights	-9.27033
▁machine	-9.27156
▁sites	-9.27178
▁offers	-9.27364
▁Well	-9.27502
▁welcoming	-9.27549
es	-9.27592
▁rates	-9.27791
▁older	-9.2798
▁dont	-9.28106
▁perfectly	-9.28369
▁Playa	-9.28795
▁superb	-9.28834
▁takes	-9.29018
▁Amsterdam	-9.29078
▁life	-9.29217
▁–	-9.29508
▁difficult	-9.29702
▁Upon	-9.29954
▁noticed	-9.29966
▁class	-9.30074
▁re	-9.30146
▁bill	-9.3036
▁maid	-9.3066
▁W	-9.30807
▁closet	-9.30914
▁beat	-9.31155
▁via	-9.31182
▁longer	-9.31284
▁choices	-9.3138
▁sign	-9.31507
▁sized	-9.31544
▁steps	-9.31553
▁directions	-9.31837
▁beer	-9.32079
on	-9.32084
▁situated	-9.32191
▁points	-9.32244
▁started	-9.32288
▁birthday	-9.32292
▁ago	-9.32389
▁based	-9.32441
as	-9.32507
▁cafe	-9.32516
▁anyway	-9.3256
▁reasonably	-9.32845
▁lady	-9.32849
▁okay	-9.32993
▁lack	-9.33463
▁true	-9.33563
▁third	-9.33631
▁towel	-9.33752
▁prepared	-9.33753
▁stops	-9.33802
▁queen	-9.34486
▁compared	-9.3458
▁ideal	-9.34588
▁snacks	-9.35013
▁square	-9.35037
▁dated	-9.35308
▁courtyard	-9.35385
▁matter	-9.3542
▁fault	-9.35491
▁tables	-9.35493
▁maintained	-9.3557
▁Singapore	-9.35826
▁remember	-9.35933
▁ones	-9.35964
▁higher	-9.36095
▁broken	-9.36199
▁services	-9.36236
▁...	-9.36298
▁information	-9.3641
▁surprise	-9.36424
▁spotless	-9.36517
room	-9.36642
▁smoke	-9.36668
▁Istanbul	-9.36801
to	-9.36853
▁families	-9.36894
▁positive	-9.3719
▁Other	-9.37442
▁questions	-9.37523
▁downstairs	-9.37546
▁sleeping	-9.3757
▁Free	-9.37734
com	-9.37762
▁enjoyable	-9.37773
▁Bellagio	-9.37858
▁sent	-9.37876
▁/	-9.37994
▁pass	-9.38191
▁soft	-9.38228
▁allowed	-9.38267
▁hope	-9.38778
▁slightly	-9.3884
▁goes	-9.38885
▁tram	-9.39071
▁particularly	-9.39161
▁simple	-9.39192
▁smile	-9.39526
▁Hyatt	-9.39879
▁Central	-9.39914
▁below	-9.3993
so	-9.39949
▁sound	-9.40057
▁consider	-9.40318
▁ordered	-9.40351
▁exactly	-9.40361
▁general	-9.4057
▁pictures	-9.40588
▁glad	-9.40649
▁moment	-9.41079
▁white	-9.41134
▁trouble	-9.41169
▁seeing	-9.41239
▁transportation	-9.41278
▁returning	-9.41286
▁cheese	-9.41296
▁Times	-9.41334
▁running	-9.41362
▁please	-9.41445
▁typical	-9.41447
▁together	-9.41575
▁adults	-9.41633
▁hair	-9.41783
▁US	-9.42095
▁yourself	-9.42131
▁smoking	-9.42131
l	-9.42219
▁advice	-9.42222
▁Boston	-9.42399
▁VERY	-9.42435
▁considering	-9.42541
▁online	-9.42718
▁microwave	-9.42887
▁computer	-9.42964
▁mall	-9.43008
▁feeling	-9.43009
▁Royal	-9.43012
▁stars	-9.43269
▁important	-9.43307
▁everyday	-9.43604
▁totally	-9.43617
▁apartment	-9.4388
▁literally	-9.43982
▁Westin	-9.4406
▁Resort	-9.44103
▁yes	-9.44413
▁Bar	-9.44464
▁elsewhere	-9.44505
▁arrive	-9.44576
▁river	-9.44727
▁expecting	-9.44859
▁regular	-9.44903
▁treated	-9.45219
▁tickets	-9.45433
▁island	-9.45505
▁beyond	-9.45627
up	-9.45771
▁play	-9.45932
▁wireless	-9.46129
▁accommodating	-9.46207
▁suites	-9.46477
▁waited	-9.46498
▁amount	-9.4663
▁Pool	-9.46701
▁feet	-9.46952
▁months	-9.47018
▁dollars	-9.47095
▁saying	-9.47119
▁prior	-9.47189
▁July	-9.47211
▁Best	-9.47237
▁usual	-9.47241
day	-9.47313
▁incredible	-9.4733
▁experienced	-9.47392
▁future	-9.47504
▁avoid	-9.47533
▁thin	-9.47681
▁personal	-9.47871
▁Diego	-9.47876
▁forward	-9.47975
▁lift	-9.48158
▁la	-9.48256
▁bigger	-9.48294
▁pressure	-9.48344
▁asking	-9.48352
▁House	-9.48368
▁25	-9.48409
▁ceiling	-9.48447
▁West	-9.49068
▁sand	-9.49166
▁horrible	-9.49239
▁S	-9.4973
▁appreciated	-9.50051
▁spectacular	-9.50293
▁advance	-9.50318
▁attention	-9.50391
they	-9.50417
▁Spanish	-9.50441
▁MGM	-9.50462
▁ground	-9.50483
▁Having	-9.50528
▁design	-9.50713
▁B	-9.50853
▁charming	-9.50958
▁sightseeing	-9.51002
▁onto	-9.51012
▁miss	-9.51035
▁interesting	-9.51112
▁*	-9.51152
▁sofa	-9.51231
▁Be	-9.51261
▁district	-9.51366
▁Mexico	-9.51434
▁anniversary	-9.51456
▁travelling	-9.51496
▁sometimes	-9.51543
▁outdoor	-9.51685
▁despite	-9.51703
▁Station	-9.51809
▁streets	-9.51935
▁clerk	-9.51945
▁w	-9.52208
▁luxurious	-9.5232
▁picked	-9.52589
▁â	-9.5259
▁Then	-9.52817
▁somewhat	-9.52898
▁idea	-9.53074
▁complained	-9.53075
".	-9.53155
▁Sheraton	-9.53166
▁suggest	-9.53337
▁further	-9.5334
▁buses	-9.53346
▁paper	-9.53612
A	-9.53655
▁Loved	-9.54047
▁means	-9.54223
.....	-9.54424
▁lights	-9.5444
▁garden	-9.54504
▁Most	-9.54571
▁fan	-9.54745
▁Maui	-9.55066
▁Its	-9.55199
▁minor	-9.55223
▁toiletries	-9.55256
▁alot	-9.55311
g	-9.55317
▁sea	-9.55338
▁With	-9.55525
▁jacuzzi	-9.55654
▁transport	-9.55701
▁trips	-9.55773
▁boutique	-9.56099
▁members	-9.56105
▁foot	-9.56328
▁parks	-9.56427
▁additional	-9.56446
▁buildings	-9.56447
▁stand	-9.5645
▁lost	-9.56594
▁Do	-9.56625
▁receptionist	-9.56674
▁pm	-9.56898
you	-9.57056
fi	-9.57202
▁clear	-9.57218
▁none	-9.5744
▁market	-9.57583
▁un	-9.57681
▁chance	-9.57686
▁May	-9.57798
star	-9.57891
▁fitness	-9.5801
▁Sydney	-9.58099
▁Old	-9.58155
▁treat	-9.58261
▁bread	-9.58275
▁planning	-9.58396
▁driver	-9.58463
▁added	-9.5884
▁Ritz	-9.58899
▁heat	-9.58902
▁romantic	-9.58924
▁King	-9.58971
▁Every	-9.59031
▁channels	-9.59068
▁American	-9.59169
▁pre	-9.59268
▁Mexican	-9.59296
▁e	-9.59319
at	-9.59711
▁alone	-9.59773
▁Francisco	-9.59861
▁50	-9.5989
▁fish	-9.60049
▁sort	-9.6018
▁save	-9.60234
▁opinion	-9.60352
for	-9.60365
▁handy	-9.6038
▁Saturday	-9.60386
▁round	-9.60449
▁fit	-9.60524
▁opposite	-9.60597
▁Now	-9.60637
▁ourselves	-9.60673
▁comment	-9.60809
▁lower	-9.60847
▁hallway	-9.60856
▁Plaza	-9.61021
▁fixed	-9.61133
▁del	-9.61199
▁couples	-9.61202
▁Orleans	-9.61258
▁Center	-9.61338
▁pleasantly	-9.61371
▁mid	-9.61512
▁employees	-9.61697
▁equipped	-9.61789
▁Everyone	-9.61949
if	-9.62023
▁delivered	-9.62217
▁arriving	-9.6225
▁incredibly	-9.62312
▁company	-9.6249
▁fully	-9.62531
▁catch	-9.62619
▁fair	-9.62946
▁generally	-9.62984
▁exceptional	-9.63064
▁stocked	-9.6311
▁lines	-9.63149
▁Four	-9.63229
▁face	-9.63424
▁Once	-9.63568
▁Suites	-9.63899
▁otherwise	-9.64091
▁boyfriend	-9.641
very	-9.64104
▁Seattle	-9.64213
▁Since	-9.64245
▁advantage	-9.64266
▁summer	-9.64287
▁Parking	-9.6432
▁Oh	-9.64328
▁straight	-9.64358
▁pastries	-9.64448
▁office	-9.64473
▁willing	-9.64506
▁happened	-9.64509
▁Clean	-9.64532
▁Suite	-9.64576
▁cleanliness	-9.64744
▁hit	-9.64834
▁complete	-9.64916
▁clothes	-9.64983
▁rooftop	-9.65067
▁gone	-9.65177
▁Sunday	-9.65232
ers	-9.65316
▁showed	-9.65332
▁beautifully	-9.65685
▁Thank	-9.65701
▁European	-9.65714
▁notice	-9.66083
▁uncomfortable	-9.661
▁Lots	-9.66165
▁Unfortunately	-9.66357
▁various	-9.6642
▁prefer	-9.6643
▁boat	-9.66512
▁cable	-9.66615
▁twin	-9.66626
▁base	-9.66742
▁mostly	-9.66979
▁June	-9.6706
▁finding	-9.67073
▁comes	-9.67092
▁spending	-9.67206
▁worn	-9.67233
▁disappointing	-9.6724
▁garage	-9.67253
▁canal	-9.67401
▁Berlin	-9.67423
▁Blue	-9.67587
▁downside	-9.67651
▁Bathroom	-9.67741
▁March	-9.67749
▁smelled	-9.67765
▁sister	-9.67892
▁Europe	-9.67916
▁add	-9.67959
▁chain	-9.6798
▁facility	-9.68055
▁gets	-9.68103
▁aware	-9.68106
▁Front	-9.68331
▁share	-9.68369
▁email	-9.68468
▁overpriced	-9.68603
▁mattress	-9.68661
▁informed	-9.68731
▁40	-9.6876
▁NY	-9.68789
▁total	-9.6888
▁Italy	-9.68936
▁:)	-9.69015
▁hall	-9.69124
▁patio	-9.69149
▁cereal	-9.69221
B	-9.69298
▁pizza	-9.69341
▁self	-9.69533
▁charges	-9.6958
T	-9.69588
▁Hollywood	-9.69686
▁encountered	-9.69834
bar	-9.69856
▁fancy	-9.70012
▁golf	-9.70029
▁machines	-9.70111
▁normal	-9.70126
▁annoying	-9.70141
▁toast	-9.70149
▁refrigerator	-9.70237
▁forget	-9.70324
▁THE	-9.70525
able	-9.70677
▁serve	-9.71197
▁closer	-9.71218
▁bonus	-9.71293
▁Juan	-9.71588
▁T	-9.71677
▁following	-9.71946
▁counter	-9.72021
▁watching	-9.72059
▁Cafe	-9.72217
!!!!	-9.7224
▁mean	-9.72409
▁motel	-9.72446
▁Strip	-9.72483
▁convention	-9.72529
▁terrific	-9.72535
▁meant	-9.72543
▁empty	-9.72598
▁updated	-9.72615
▁AC	-9.72696
▁stores	-9.72738
▁red	-9.72813
▁14	-9.72876
▁marble	-9.72963
▁talking	-9.73103
▁situation	-9.73121
▁Restaurant	-9.73297
▁meeting	-9.73349
▁worse	-9.73494
▁reserved	-9.73499
▁cafes	-9.73511
▁awful	-9.738
▁list	-9.73897
▁maker	-9.73922
▁comfort	-9.7403
▁managed	-9.74076
▁Place	-9.74165
▁earlier	-9.74337
▁bag	-9.74362
▁bell	-9.74375
▁wi	-9.74413
▁addition	-9.74415
▁champagne	-9.74658
▁meet	-9.7477
▁lighting	-9.74871
▁Starbucks	-9.74974
▁giving	-9.74979
▁August	-9.75112
▁Carmen	-9.75146
▁english	-9.75328
▁pleasure	-9.75364
▁missing	-9.75387
▁massage	-9.75442
▁bought	-9.75722
▁month	-9.75814
▁works	-9.75891
▁$10	-9.76242
one	-9.76285
▁supposed	-9.7648
▁difference	-9.76753
▁calls	-9.76757
▁write	-9.76877
▁April	-9.76963
▁range	-9.77011
▁guys	-9.77029
▁rating	-9.77041
▁tours	-9.77043
with	-9.77051
▁lucky	-9.77106
▁common	-9.77309
▁costs	-9.77341
▁attitude	-9.77383
▁El	-9.77536
▁connection	-9.77583
▁brand	-9.77639
▁agree	-9.77743
▁Island	-9.77793
▁imagine	-9.7782
▁deluxe	-9.77898
▁discount	-9.7824
▁euro	-9.78411
!).	-9.78581
▁rent	-9.78627
▁concerned	-9.78755
▁tourists	-9.7888
▁wide	-9.78998
▁travelers	-9.79122
▁NO	-9.79259
▁obviously	-9.79272
▁ran	-9.794
▁aren	-9.79489
▁fix	-9.79667
▁reviewers	-9.79675
▁Another	-9.79715
▁rental	-9.7972
▁Holiday	-9.79817
▁clearly	-9.79942
▁bugs	-9.7997
▁game	-9.80087
▁filled	-9.80275
▁tips	-9.80541
▁placed	-9.80557
▁covered	-9.80564
▁properties	-9.80692
▁agent	-9.80783
▁map	-9.8084
▁comments	-9.80898
▁soap	-9.80937
▁Again	-9.80961
▁linens	-9.81089
▁Union	-9.8119
▁temperature	-9.81328
▁taste	-9.81409
▁Can	-9.81524
▁Quarter	-9.81572
▁bedding	-9.81641
▁p	-9.817
▁similar	-9.81792
▁furnished	-9.81802
▁Both	-9.81803
▁Ocean	-9.81829
TMt	-9.81862
▁Market	-9.8187
k	-9.81872
▁Will	-9.8193
▁thanks	-9.8246
▁accomodating	-9.82755
▁woman	-9.8277
▁recommendations	-9.82821
▁laundry	-9.82997
▁Madrid	-9.83042
▁hang	-9.83109
▁nearly	-9.83199
▁Was	-9.8322
▁Spa	-9.83237
▁Thanks	-9.83363
▁black	-9.83364
▁girls	-9.83487
▁chocolate	-9.83591
▁section	-9.83605
▁keys	-9.83606
▁explore	-9.83691
▁appeared	-9.83707
▁thank	-9.8398
▁south	-9.83985
▁bottles	-9.83994
▁World	-9.8407
▁$20	-9.8414
▁particular	-9.84275
▁LA	-9.84364
▁Friday	-9.84401
al	-9.84492
▁hallways	-9.84565
▁worried	-9.84768
▁checkout	-9.84811
▁mile	-9.84942
▁impressive	-9.84945
▁basically	-9.84968
▁“	-9.84976
▁sat	-9.85051
▁tube	-9.85104
▁By	-9.85123
▁relatively	-9.85337
▁grand	-9.85516
▁stations	-9.85591
▁perhaps	-9.85786
▁bright	-9.859
▁till	-9.85975
▁Nothing	-9.86131
smoking	-9.86133
▁maintenance	-9.86369
▁playing	-9.86475
▁board	-9.86477
▁North	-9.86487
▁traveled	-9.86497
▁Venetian	-9.86777
all	-9.86787
▁north	-9.86935
▁condition	-9.86957
▁Airport	-9.87029
▁biggest	-9.87114
▁dishes	-9.87198
▁talk	-9.87292
▁18	-9.87361
x	-9.87383
▁photos	-9.87457
h	-9.87461
▁breakfasts	-9.87557
▁convenience	-9.87702
▁action	-9.87714
▁Trip	-9.8782
▁fire	-9.87833
▁Seasons	-9.87961
▁Wynn	-9.87964
▁100	-9.88039
▁contact	-9.88067
▁Beautiful	-9.88322
▁miles	-9.88364
▁stopped	-9.88581
▁ahead	-9.88668
▁word	-9.88686
▁Cana	-9.88816
▁brilliant	-9.88833
▁Christmas	-9.88946
▁)	-9.89008
”	-9.89175
▁1/2	-9.89221
▁impression	-9.89252
▁partner	-9.89465
▁U	-9.89619
▁rain	-9.89694
▁snack	-9.8973
▁furnishings	-9.898
▁curtains	-9.89801
▁tasty	-9.89817
▁setting	-9.89849
▁Key	-9.90021
▁centrally	-9.90104
▁cozy	-9.90112
▁ten	-9.90171
▁overlooked	-9.90603
▁Two	-9.90689
▁barely	-9.908
▁u	-9.90881
▁45	-9.90988
▁age	-9.91127
▁proximity	-9.91245
▁16	-9.91329
▁elegant	-9.91344
p	-9.91381
▁Punta	-9.91476
▁charm	-9.91532
▁taxis	-9.91615
▁Le	-9.91647
▁gift	-9.91704
▁towards	-9.91709
▁bottom	-9.91831
although	-9.91836
▁steak	-9.91872
▁missed	-9.92029
▁Really	-9.92106
▁arranged	-9.92113
▁Kong	-9.92337
▁bay	-9.92369
▁Hong	-9.92478
▁Florence	-9.92552
▁Riu	-9.92712
▁reach	-9.92736
▁dryer	-9.92755
▁Montreal	-9.92878
▁stated	-9.92905
▁An	-9.93073
▁superior	-9.93225
▁numerous	-9.93229
▁control	-9.93262
▁con	-9.93314
▁Orlando	-9.93338
▁Avenue	-9.93886
▁Next	-9.93946
▁hesitate	-9.94007
▁disappointment	-9.94123
▁answer	-9.94742
there	-9.94782
▁owner	-9.94926
▁cash	-9.94961
▁midnight	-9.95003
▁hold	-9.95109
▁affordable	-9.95206
▁Bed	-9.95215
▁sight	-9.95325
▁wake	-9.95388
▁whilst	-9.95528
▁bathtub	-9.95728
▁ticket	-9.95739
▁iron	-9.9583
▁Go	-9.95918
▁beaches	-9.95994
▁seating	-9.9622
▁L	-9.96239
▁immaculate	-9.96278
▁nor	-9.96459
▁October	-9.96547
▁spots	-9.96588
▁girl	-9.9693
▁country	-9.97013
▁conditioner	-9.97236
even	-9.97249
le	-9.97398
▁team	-9.97502
like	-9.97504
▁art	-9.97518
▁properly	-9.97734
▁Euros	-9.98123
▁mistake	-9.98257
▁waiter	-9.98375
▁step	-9.98522
▁details	-9.98745
▁Waikiki	-9.98771
▁bothered	-9.9879
▁odd	-9.9907
▁shampoo	-9.99231
▁couch	-9.99394
▁sick	-9.99489
▁condo	-9.99533
▁recent	-9.99575
▁requests	-9.99844
▁underground	-10.0008
▁whether	-10.001
▁pillow	-10.0029
▁showers	-10.0037
TMs	-10.0041
▁Termini	-10.0049
this	-10.0055
▁box	-10.0061
▁conveniently	-10.0068
▁Rock	-10.0083
▁thoroughly	-10.0088
▁Close	-10.0093
▁grocery	-10.0102
▁bacon	-10.0112
▁breeze	-10.0116
just	-10.0118
▁attached	-10.0119
▁season	-10.0147
▁inclusive	-10.0155
▁strong	-10.0159
▁hanging	-10.0162
▁driving	-10.0164
▁theme	-10.017
▁surrounding	-10.0179
▁+	-10.0197
▁travelled	-10.02
▁send	-10.0201
▁milk	-10.0219
▁Highly	-10.0235
▁b	-10.0241
▁Their	-10.0272
▁cooked	-10.0287
▁keeping	-10.0306
▁renovation	-10.0327
▁detail	-10.0345
▁Vancouver	-10.0345
▁overnight	-10.0351
▁apart	-10.0355
▁interested	-10.0368
▁Of	-10.0377
▁hardly	-10.0378
▁peaceful	-10.0379
▁unique	-10.0383
ness	-10.0404
▁happen	-10.0405
▁Finally	-10.0409
▁drop	-10.0421
▁worry	-10.0422
▁designed	-10.0424
▁),	-10.0432
▁adjacent	-10.0436
▁certain	-10.044
▁equipment	-10.0446
▁stuck	-10.0454
an	-10.0454
▁laptop	-10.0461
▁hadn	-10.0476
▁six	-10.0483
▁enter	-10.0492
▁evenings	-10.0496
▁complex	-10.0498
▁cup	-10.0504
▁pull	-10.0516
▁stunning	-10.0528
▁O	-10.053
▁process	-10.0537
▁constantly	-10.0541
▁replaced	-10.0545
▁South	-10.0554
▁buffets	-10.0563
▁folks	-10.0569
▁explained	-10.057
▁games	-10.0581
▁notch	-10.0605
▁19	-10.0609
▁shut	-10.0615
▁13	-10.0634
▁Stay	-10.0645
▁parents	-10.0668
▁court	-10.0679
▁accommodation	-10.0681
▁$5	-10.0692
▁doubt	-10.0693
▁required	-10.0693
▁privacy	-10.0695
▁built	-10.0697
▁P	-10.0702
▁whatever	-10.0738
▁example	-10.0743
▁terms	-10.0746
▁Japanese	-10.0752
▁tidy	-10.0757
▁offering	-10.0777
▁cereals	-10.0778
▁September	-10.0781
▁Advisor	-10.0782
▁shade	-10.0782
▁direct	-10.0788
▁December	-10.0797
▁Concierge	-10.0802
en	-10.0806
▁cars	-10.0816
It	-10.0819
▁unfortunately	-10.082
▁Many	-10.0823
▁cramped	-10.0847
▁customers	-10.0847
▁owners	-10.085
▁17	-10.0856
▁Toronto	-10.0856
▁Housekeeping	-10.0858
P	-10.0858
▁getaway	-10.0859
▁satisfied	-10.0861
▁planned	-10.0861
▁plentiful	-10.0862
▁thinking	-10.0864
▁themselves	-10.0871
min	-10.0875
▁packed	-10.0887
▁adult	-10.092
▁These	-10.0934
▁January	-10.0934
▁beginning	-10.0948
▁timeshare	-10.0949
▁bargain	-10.095
▁paint	-10.0968
▁E	-10.0973
▁strange	-10.0984
▁heated	-10.1011
▁blue	-10.1032
▁receive	-10.1043
▁interior	-10.1044
▁minibar	-10.106
▁cut	-10.1063
▁shared	-10.1065
▁carte	-10.1073
▁C	-10.1075
▁glasses	-10.1089
▁provides	-10.109
free	-10.1099
▁wear	-10.1106
▁Maybe	-10.1128
▁mirror	-10.113
▁traveler	-10.1132
▁Each	-10.1132
▁Casino	-10.1146
▁departure	-10.1158
▁include	-10.116
▁preferred	-10.1167
▁Ave	-10.117
▁accessible	-10.1174
▁connected	-10.1174
▁crowd	-10.1175
▁snorkeling	-10.1182
▁runs	-10.1188
▁seat	-10.1191
▁nicest	-10.1206
▁thru	-10.1208
▁stains	-10.1209
▁trees	-10.1226
▁allow	-10.1229
▁executive	-10.1242
▁Priceline	-10.1242
▁promptly	-10.1243
▁deck	-10.1256
▁During	-10.1257
▁cream	-10.1261
▁sweet	-10.1267
▁honest	-10.1269
▁picky	-10.1271
▁View	-10.1273
▁faced	-10.1291
▁sense	-10.1304
▁quieter	-10.1311
▁baby	-10.1314
&	-10.1314
▁discovered	-10.1318
▁narrow	-10.1319
▁forgot	-10.1321
▁Have	-10.1322
▁kitchenette	-10.1339
2	-10.1347
▁supermarket	-10.1364
▁bottled	-10.1372
▁hop	-10.1375
▁laid	-10.1389
▁indeed	-10.1392
my	-10.1392
▁Beds	-10.14
▁gives	-10.1416
▁Vatican	-10.1421
▁direction	-10.1421
▁Definitely	-10.1433
▁newly	-10.1441
▁Reception	-10.1441
▁Euro	-10.1443
▁rented	-10.1452
▁deep	-10.1459
+	-10.1473
▁AM	-10.1474
▁cocktail	-10.1496
▁21	-10.1504
▁mixed	-10.1507
▁November	-10.1507
▁upscale	-10.1516
▁poolside	-10.1518
▁Buffet	-10.153
▁bridge	-10.1537
▁spread	-10.1539
▁t	-10.1545
▁stylish	-10.1551
ish	-10.1553
▁exploring	-10.1555
▁Sea	-10.1566
▁says	-10.1567
▁normally	-10.1567
▁mornings	-10.1568
▁indoor	-10.1573
▁harbour	-10.1582
▁travellers	-10.1584
▁cocktails	-10.159
▁held	-10.1598
▁locals	-10.1644
▁Friendly	-10.1646
▁honestly	-10.1661
▁web	-10.1663
▁Day	-10.1669
▁prompt	-10.1684
▁sorry	-10.1687
▁$100	-10.1692
▁Miami	-10.171
▁Otherwise	-10.1711
▁luck	-10.1714
▁careful	-10.172
b	-10.1726
▁Perfect	-10.1729
▁gem	-10.1739
▁appreciate	-10.174
▁memorable	-10.1762
▁saved	-10.1779
▁stained	-10.179
▁cards	-10.179
▁tight	-10.1793
▁Booked	-10.1795
▁orange	-10.1797
is	-10.1803
▁question	-10.1805
▁woke	-10.1806
▁relaxed	-10.1815
▁WiFi	-10.1818
▁Because	-10.1819
▁apparently	-10.1819
▁sports	-10.1824
▁en	-10.1826
▁heavy	-10.1833
▁curtain	-10.1837
▁:	-10.1837
▁movie	-10.1859
▁fare	-10.1868
▁dollar	-10.1871
▁Like	-10.1875
▁storage	-10.1885
▁parts	-10.1886
▁neat	-10.1901
▁acceptable	-10.1909
▁Never	-10.1911
▁Eiffel	-10.1915
▁remote	-10.1927
▁feature	-10.1932
▁impossible	-10.1933
▁hospitality	-10.1949
▁computers	-10.1958
▁men	-10.196
▁Via	-10.197
▁D	-10.1984
▁Cancun	-10.1985
▁stroll	-10.1997
▁chicken	-10.2001
▁wash	-10.2008
▁Manhattan	-10.2013
▁Being	-10.2016
▁became	-10.2017
▁opening	-10.2018
▁picture	-10.2024
▁lock	-10.2026
▁girlfriend	-10.2046
▁roomy	-10.2052
▁$15	-10.2057
▁Garden	-10.2058
▁known	-10.2059
▁story	-10.2062
▁cover	-10.2069
▁ferry	-10.2074
▁child	-10.2087
▁accommodations	-10.2099
▁speaking	-10.21
▁previously	-10.2123
▁Wonderful	-10.2125
▁layout	-10.2128
▁calling	-10.2143
▁croissants	-10.2159
▁Plus	-10.216
▁massive	-10.2168
▁drove	-10.2171
▁advised	-10.2183
M	-10.2194
▁enjoying	-10.2195
▁carry	-10.2212
▁french	-10.2213
▁Small	-10.2216
▁GREAT	-10.222
▁s	-10.2238
▁Museum	-10.2255
▁useful	-10.226
▁juices	-10.2262
▁Harbour	-10.2278
▁Ramblas	-10.2283
▁products	-10.2286
▁Easy	-10.2289
▁exception	-10.2297
go	-10.2319
▁Hawaii	-10.2321
▁filthy	-10.2322
▁Town	-10.2323
▁inexpensive	-10.2328
▁complaining	-10.2349
▁鈥	-10.235
▁carpets	-10.2355
▁plastic	-10.2358
▁cute	-10.2362
▁attractive	-10.2391
▁Here	-10.2394
▁shoes	-10.2402
▁tax	-10.2413
▁television	-10.2416
There	-10.2428
v	-10.2434
ie	-10.2454
▁steep	-10.2454
▁Canal	-10.2456
▁green	-10.2465
▁original	-10.247
▁Mirage	-10.2472
▁historic	-10.2475
▁suggestions	-10.2488
▁Plenty	-10.2489
▁advise	-10.249
F	-10.2495
▁Del	-10.2514
▁crazy	-10.2531
D	-10.2532
▁waste	-10.2534
▁realized	-10.2535
▁secure	-10.255
▁Â	-10.256
▁tropical	-10.257
▁Red	-10.2573
▁refused	-10.2574
▁event	-10.2587
▁yogurt	-10.259
▁standing	-10.2591
▁functional	-10.2596
E	-10.2602
off	-10.2611
▁employee	-10.2612
u	-10.2616
less	-10.2616
▁d	-10.2621
▁played	-10.2622
▁Universal	-10.2625
鈥檛	-10.2627
▁advertised	-10.2629
▁Hotels	-10.2636
鈥	-10.2639
▁outdated	-10.2644
▁wasnt	-10.2644
▁women	-10.2651
la	-10.2652
▁Village	-10.2664
▁likely	-10.2676
▁Fantastic	-10.2677
▁switch	-10.2686
▁moving	-10.2693
▁guide	-10.2693
▁salad	-10.2698
▁villa	-10.2709
▁power	-10.2715
▁personally	-10.2721
▁entered	-10.2729
▁musty	-10.2758
▁experiences	-10.2761
▁Manager	-10.2784
▁includes	-10.2785
▁promised	-10.2795
▁firm	-10.2799
▁welcomed	-10.2814
▁drinking	-10.2817
▁feels	-10.282
▁wanting	-10.2824
f	-10.2841
▁Centre	-10.2859
▁refund	-10.286
▁effort	-10.287
▁bartender	-10.287
▁mold	-10.2879
▁rated	-10.2883
▁crowds	-10.2888
▁Make	-10.2897
about	-10.2906
▁response	-10.2927
▁mother	-10.2935
▁occasions	-10.2936
▁exceptionally	-10.2939
▁figure	-10.2946
great	-10.2956
▁fell	-10.2957
▁flowers	-10.297
▁Marco	-10.2974
▁trendy	-10.3001
▁Air	-10.3005
▁speed	-10.3005
1	-10.3013
▁spotlessly	-10.3014
▁seafood	-10.3014
▁Road	-10.3024
▁tons	-10.303
▁delightful	-10.3032
hotel	-10.3033
▁state	-10.3044
▁Mandalay	-10.3048
▁Please	-10.3052
▁famous	-10.3055
▁Despite	-10.3057
▁cake	-10.3065
▁signs	-10.3065
▁upstairs	-10.3083
▁finished	-10.3088
that	-10.3097
▁transfer	-10.3101
▁waves	-10.3106
▁junior	-10.3113
▁alarm	-10.3115
▁sleeper	-10.3124
▁ample	-10.3139
▁print	-10.3143
nt	-10.3155
▁popular	-10.3163
▁whenever	-10.3177
▁lit	-10.3185
▁Did	-10.3187
our	-10.3201
from	-10.3204
▁Big	-10.3217
▁suitcases	-10.3221
▁touches	-10.3222
▁disgusting	-10.3224
▁Didn	-10.3226
▁AND	-10.3228
▁adjoining	-10.3233
▁M	-10.3238
especially	-10.3245
▁F	-10.3253
▁passes	-10.3264
▁Downtown	-10.3277
▁multiple	-10.3284
▁Secrets	-10.3321
▁nightly	-10.3323
▁o	-10.3335
▁$50	-10.3338
▁Lovely	-10.3341
▁hassle	-10.335
▁dry	-10.3354
▁sell	-10.3355
▁Got	-10.3362
▁starting	-10.3362
▁agreed	-10.3369
▁Expedia	-10.3374
▁recommendation	-10.341
▁newer	-10.3416
▁reasons	-10.3419
▁piece	-10.3428
▁beside	-10.344
end	-10.3446
▁therefore	-10.3448
▁actual	-10.3461
▁bedrooms	-10.3467
▁final	-10.347
▁waiters	-10.3472
▁bellman	-10.3479
do	-10.3481
▁$25	-10.3481
3	-10.349
▁breads	-10.3492
▁cookies	-10.3499
▁character	-10.3503
▁west	-10.3509
▁position	-10.3511
€“	-10.353
▁wants	-10.3531
▁SF	-10.3532
▁features	-10.3533
▁maids	-10.354
▁against	-10.354
▁overly	-10.3547
▁22	-10.3548
▁serving	-10.355
▁lazy	-10.3561
▁flights	-10.3565
▁February	-10.3576
▁upper	-10.3577
▁mainly	-10.3582
▁Mosque	-10.3584
R	-10.3586
▁UK	-10.3587
▁ages	-10.359
▁cups	-10.3596
▁purchase	-10.3599
▁personnel	-10.3604
▁research	-10.3615
▁Piazza	-10.3624
▁sounds	-10.3625
▁bucks	-10.363
▁lifts	-10.3655
▁knowledgeable	-10.3655
▁Try	-10.3656
▁rock	-10.3659
▁grab	-10.3662
▁noon	-10.3667
▁joke	-10.3682
▁gardens	-10.3682
▁celebrate	-10.3687
▁opportunity	-10.3689
▁visitors	-10.3702
▁suggested	-10.3713
▁locations	-10.3714
▁helping	-10.3719
▁date	-10.3724
▁Star	-10.3725
▁Mall	-10.3729
▁possibly	-10.373
▁Cons	-10.3731
▁clock	-10.3732
▁duty	-10.3733
▁basement	-10.3746
▁meats	-10.3748
▁Take	-10.3755
V	-10.3756
▁presented	-10.3761
▁eventually	-10.3769
▁Right	-10.377
▁haven	-10.377
▁Express	-10.3773
only	-10.3775
▁Building	-10.3779
▁ridiculous	-10.3804
▁units	-10.3811
▁Wi	-10.3814
▁opted	-10.3814
▁(2	-10.3816
▁bug	-10.3818
▁refurbished	-10.3829
coffee	-10.383
▁Me	-10.383
▁museums	-10.3834
▁fill	-10.3847
▁locked	-10.386
4	-10.3862
▁ladies	-10.3869
▁exceeded	-10.3883
▁smooth	-10.3892
▁dropped	-10.3892
na	-10.3892
▁helpfull	-10.3899
▁telling	-10.3901
▁casinos	-10.3901
$	-10.3902
▁correct	-10.3904
▁renovations	-10.3915
▁attending	-10.3915
▁wardrobe	-10.3922
▁Grill	-10.3923
▁funny	-10.3934
▁mine	-10.3939
▁museum	-10.3945
▁activity	-10.3961
▁reserve	-10.397
▁fruits	-10.398
▁parked	-10.3984
▁serves	-10.3998
line	-10.4003
▁Western	-10.4013
▁Puerto	-10.4029
▁cant	-10.4043
▁pulled	-10.4053
▁heading	-10.4054
▁info	-10.406
▁loads	-10.4062
▁bartenders	-10.4063
▁meat	-10.4068
O	-10.407
▁terminal	-10.4075
▁boys	-10.4094
▁Fairmont	-10.4114
▁player	-10.4125
▁23	-10.4126
W	-10.4133
▁deposit	-10.4139
▁..	-10.4142
▁originally	-10.4145
▁nightlife	-10.4155
▁lacking	-10.4158
▁eye	-10.4169
▁easier	-10.4175
▁traditional	-10.4195
▁nearest	-10.4202
▁realize	-10.4216
▁sauna	-10.4221
▁par	-10.4228
▁history	-10.4248
▁dog	-10.425
▁Marina	-10.4263
▁Let	-10.4264
▁People	-10.4267
▁lake	-10.4268
mins	-10.4273
▁Bridge	-10.4278
▁school	-10.4279
▁necessary	-10.4294
▁Anyway	-10.4299
▁Went	-10.4304
▁wood	-10.4306
▁presentation	-10.4308
▁shape	-10.4309
▁DO	-10.4324
▁fees	-10.4345
▁degrees	-10.4351
▁harbor	-10.4351
▁́	-10.4366
▁fountain	-10.4372
▁warned	-10.4373
▁types	-10.4401
▁shown	-10.4409
▁mix	-10.441
▁Orchard	-10.4416
▁robes	-10.4417
▁$30	-10.4418
▁sunset	-10.4432
......	-10.4438
▁post	-10.4453
▁frequent	-10.4454
▁Lobby	-10.4458
▁roll	-10.4465
▁noted	-10.4466
by	-10.4468
▁Golden	-10.4483
▁posted	-10.4486
▁journey	-10.4488
▁kid	-10.4495
▁pack	-10.4497
L	-10.4498
est	-10.451
▁sold	-10.4514
▁treatment	-10.4518
▁Canada	-10.4528
▁HK	-10.4536
▁spring	-10.4544
▁fall	-10.4548
▁East	-10.4551
This	-10.4554
us	-10.4558
?)	-10.4561
▁regarding	-10.4567
▁lived	-10.4567
▁corridor	-10.4569
▁inviting	-10.4574
▁Mayan	-10.4576
▁Lounge	-10.458
▁trains	-10.4584
▁quaint	-10.4587
▁throw	-10.4594
▁Water	-10.4594
▁@	-10.4605
be	-10.4609
▁accomodations	-10.462
▁plate	-10.4622
▁negatives	-10.4623
side	-10.4627
▁language	-10.465
▁seats	-10.4651
▁du	-10.4661
▁Michigan	-10.4669
▁exercise	-10.4674
▁passed	-10.4675
▁cleaner	-10.4693
▁destination	-10.4695
▁route	-10.4698
If	-10.4698
▁Chinese	-10.47
▁HUGE	-10.4701
of	-10.4711
▁concern	-10.4715
▁fountains	-10.4719
▁compare	-10.472
▁linen	-10.4721
▁bagels	-10.4737
▁trolley	-10.475
▁heating	-10.4757
▁Monday	-10.4758
▁providing	-10.4758
▁winter	-10.4765
K	-10.4766
▁stays	-10.4779
▁accommodate	-10.4786
▁written	-10.4792
▁traveller	-10.4797
▁removed	-10.481
▁Maya	-10.4812
▁BUT	-10.4824
▁admit	-10.4825
▁ensure	-10.4825
way	-10.4829
10	-10.4833
▁become	-10.4846
▁boarding	-10.4847
▁How	-10.4848
▁slippers	-10.4848
▁theatre	-10.4849
▁alcohol	-10.4858
▁rough	-10.4862
▁Pros	-10.4863
▁cross	-10.4865
▁Riviera	-10.4873
▁shabby	-10.4875
▁wonder	-10.4886
▁Hard	-10.4889
▁Dubai	-10.4892
▁upset	-10.4894
▁Dominican	-10.4908
▁cook	-10.4915
▁60	-10.492
▁unable	-10.4923
▁bustle	-10.4939
▁waitress	-10.4961
▁remodeled	-10.4967
ok	-10.4977
▁Pacific	-10.498
▁shame	-10.4985
▁safety	-10.4986
▁$	-10.4989
▁surrounded	-10.4991
▁calm	-10.4997
▁monorail	-10.501
▁MRT	-10.5022
▁hill	-10.5032
▁entry	-10.5035
▁ALL	-10.5036
▁Opera	-10.5038
w	-10.5046
▁surprisingly	-10.5048
▁Chinatown	-10.5053
▁decide	-10.5057
▁occasion	-10.507
▁police	-10.5072
inclusive	-10.5076
▁drivers	-10.5076
▁talked	-10.5084
▁Valet	-10.5093
5	-10.5101
he	-10.5103
▁groups	-10.5113
▁animals	-10.5114
▁Quay	-10.5119
AM	-10.5133
▁attend	-10.514
▁couldnt	-10.5156
▁period	-10.5156
▁Napa	-10.5164
ting	-10.5167
▁tipped	-10.5176
▁studio	-10.5178
▁rolls	-10.5181
▁plane	-10.5181
▁considered	-10.5193
▁2011	-10.5204
▁hip	-10.5208
▁5-	-10.5224
▁generous	-10.5224
▁weird	-10.5227
▁showing	-10.5229
▁pot	-10.523
un	-10.5232
▁Located	-10.5235
▁suitcase	-10.5236
▁hands	-10.5245
▁handle	-10.5252
▁ship	-10.5252
▁learned	-10.5254
▁washer	-10.5256
▁River	-10.5268
▁lay	-10.5268
▁body	-10.5275
▁PM	-10.5278
▁2011.	-10.5287
▁balconies	-10.5291
down	-10.5294
▁Mar	-10.5295
▁10-15	-10.5307
▁purpose	-10.5307
▁slight	-10.5311
▁excited	-10.5312
▁answered	-10.5317
▁assistance	-10.533
▁suppose	-10.5332
▁policy	-10.5335
▁watched	-10.5335
▁blast	-10.5347
▁extended	-10.5352
▁afford	-10.5355
▁waffles	-10.5355
▁assist	-10.5355
▁triple	-10.5358
▁cell	-10.5361
▁international	-10.5366
▁n	-10.5385
▁writing	-10.5395
▁clubs	-10.5397
▁hustle	-10.5398
▁wished	-10.5403
including	-10.5404
▁bank	-10.5406
▁figured	-10.5407
▁hesitation	-10.5421
▁serious	-10.5423
▁entering	-10.5428
ic	-10.5436
▁confirmation	-10.5437
▁queue	-10.5439
▁Walking	-10.5443
▁nervous	-10.5461
▁gentleman	-10.5463
▁grill	-10.5464
▁slide	-10.5465
man	-10.5466
▁muffins	-10.547
▁tile	-10.5471
▁cigarette	-10.5477
▁drawback	-10.5482
▁frequently	-10.5484
▁Gran	-10.5485
▁smiling	-10.5491
G	-10.5497
good	-10.551
▁appear	-10.5511
▁updating	-10.554
▁putting	-10.5541
▁State	-10.5549
▁headed	-10.5554
▁Though	-10.556
▁Villa	-10.5561
▁excursions	-10.5561
▁absolute	-10.5562
▁band	-10.5584
▁1.	-10.561
▁advisor	-10.5616
▁interest	-10.5617
▁hidden	-10.5619
▁depending	-10.5626
▁Tripadvisor	-10.5631
▁constant	-10.5635
▁premium	-10.5652
▁TripAdvisor	-10.5655
de	-10.5656
▁form	-10.5658
▁decision	-10.5665
▁cause	-10.5668
▁Coffee	-10.567
▁inconvenience	-10.5677
▁highlight	-10.5678
▁workers	-10.5684
▁Still	-10.5687
▁east	-10.5691
▁purchased	-10.5697
▁magnificent	-10.5703
▁sandwiches	-10.5705
ng	-10.5705
▁caught	-10.5707
▁doorman	-10.5715
▁sinks	-10.5718
▁exit	-10.5731
▁suit	-10.5737
▁trash	-10.5741
▁weekends	-10.5743
▁Santa	-10.5749
▁Ok	-10.5767
ment	-10.5767
▁favourite	-10.5776
▁sad	-10.5783
▁pain	-10.5787
▁plates	-10.5793
▁refreshing	-10.5795
▁seriously	-10.58
site	-10.581
▁contemporary	-10.5813
▁highway	-10.5817
▁boy	-10.5824
▁edge	-10.5826
▁dust	-10.583
▁neighbors	-10.583
▁comparison	-10.5834
▁flying	-10.5837
▁Wharf	-10.585
▁regret	-10.5863
▁beware	-10.5865
▁strongly	-10.5869
▁Asian	-10.5875
▁De	-10.5876
▁disco	-10.588
▁touristy	-10.5881
▁mediocre	-10.5884
▁Large	-10.5901
▁attended	-10.5905
▁sliding	-10.5908
though	-10.5913
▁Desk	-10.5916
▁fab	-10.5919
el	-10.5934
▁sales	-10.5937
▁cart	-10.5939
▁rocks	-10.5943
▁recommending	-10.5952
▁explain	-10.5955
rs	-10.5956
▁seperate	-10.5957
▁dance	-10.5957
▁impeccable	-10.596
▁neither	-10.596
▁tiles	-10.597
▁appears	-10.5971
▁26	-10.598
▁corridors	-10.598
▁minimal	-10.6
▁environment	-10.6002
▁Florida	-10.6022
Y	-10.6024
sized	-10.6034
▁Feb	-10.6039
▁!!	-10.604
old	-10.6048
▁vegas	-10.6055
▁chic	-10.6069
view	-10.6073
▁breathtaking	-10.6073
▁cheapest	-10.6074
▁follow	-10.6076
▁assured	-10.6076
▁die	-10.6091
▁H	-10.6093
▁conversation	-10.6099
▁begin	-10.6105
▁words	-10.611
▁R	-10.6117
▁result	-10.6117
▁Super	-10.6121
▁hairdryer	-10.6131
▁spray	-10.6131
▁port	-10.6132
▁report	-10.6137
ted	-10.6138
▁alternative	-10.6149
▁scrambled	-10.615
▁scene	-10.6154
▁dead	-10.6169
▁visits	-10.6171
▁drain	-10.6182
??	-10.6196
▁gotten	-10.6204
▁listen	-10.6208
▁ceilings	-10.6208
▁tripadvisor	-10.6227
▁classy	-10.6245
ity	-10.625
▁90	-10.6255
▁sheet	-10.6255
▁workout	-10.6258
▁K	-10.626
well	-10.626
▁ham	-10.6264
▁described	-10.6266
▁obvious	-10.6277
▁st	-10.6286
▁proper	-10.6296
▁VIP	-10.6302
▁Trevi	-10.6303
▁poorly	-10.6305
▁Broadway	-10.631
▁bike	-10.6316
▁initially	-10.6316
▁cheeses	-10.6329
▁account	-10.6333
age	-10.6333
▁changing	-10.6335
▁bunch	-10.6339
▁finish	-10.6341
▁path	-10.6343
▁happily	-10.6357
▁Lahaina	-10.6362
see	-10.6366
▁rep	-10.6368
▁present	-10.6376
▁Starwood	-10.6377
▁hostel	-10.6379
▁bringing	-10.6379
▁SO	-10.6396
▁reported	-10.6396
▁1)	-10.6409
▁hoping	-10.6409
▁sufficient	-10.6417
▁plug	-10.6438
▁closest	-10.644
▁Mr	-10.6442
▁Caribbean	-10.6466
▁tend	-10.6468
▁ironing	-10.6471
▁residential	-10.6481
ation	-10.6491
▁kettle	-10.6492
▁Restaurants	-10.65
▁MTR	-10.6502
▁27	-10.6508
per	-10.6512
▁ways	-10.6514
▁Over	-10.6517
▁ambiance	-10.6517
▁NEVER	-10.6519
▁basis	-10.6521
▁attendant	-10.6524
▁approx	-10.6531
▁gracious	-10.6542
▁knowing	-10.6544
▁nowhere	-10.6548
▁exchange	-10.655
ion	-10.6554
▁contacted	-10.6555
▁Omni	-10.6562
▁boats	-10.6564
▁Why	-10.6575
▁confirmed	-10.6581
▁Steps	-10.6583
▁co	-10.6584
top	-10.6584
▁Luckily	-10.6599
▁$1	-10.6602
▁rip	-10.6606
▁steam	-10.6614
ia	-10.6616
▁spanish	-10.6616
▁2)	-10.663
▁charging	-10.663
PM	-10.6632
▁connecting	-10.664
▁Harbor	-10.6651
▁Wailea	-10.6656
▁Little	-10.6665
▁among	-10.6668
ce	-10.6668
▁cosy	-10.6674
▁Playacar	-10.6679
▁cities	-10.6691
▁yards	-10.6697
▁Gold	-10.67
ful	-10.6701
▁TO	-10.6712
▁G	-10.6713
▁dish	-10.6716
▁hate	-10.672
▁Bus	-10.6723
▁USA	-10.6727
▁fixtures	-10.674
ies	-10.6741
▁28	-10.6745
▁Carlton	-10.6747
▁tastefully	-10.6749
shower	-10.6754
▁express	-10.6762
▁reviewer	-10.6764
▁Lake	-10.6769
▁Walk	-10.6773
▁thick	-10.6774
▁pushed	-10.6774
*	-10.6783
▁200	-10.6784
▁married	-10.6788
▁Bourbon	-10.6788
▁hungry	-10.6788
▁learn	-10.6795
▁ear	-10.68
▁Maria	-10.6801
▁Get	-10.6815
▁maps	-10.6816
▁unfriendly	-10.6818
▁wise	-10.6823
▁TVs	-10.6833
▁movies	-10.6842
▁neighbourhood	-10.6848
▁sushi	-10.6852
▁pasta	-10.6853
▁plain	-10.6857
N	-10.6863
▁partial	-10.6867
▁liquor	-10.6875
co	-10.6879
▁master	-10.6881
▁District	-10.6884
▁stood	-10.6884
▁Absolutely	-10.6886
▁badly	-10.6896
▁chef	-10.6902
▁$2	-10.6904
▁natural	-10.691
▁apartments	-10.6916
▁dessert	-10.6917
▁Empire	-10.6925
▁address	-10.6925
▁lively	-10.693
▁Bali	-10.6933
▁forever	-10.6934
▁dogs	-10.6935
▁About	-10.6936
▁cabs	-10.6943
▁unhelpful	-10.6947
▁desired	-10.695
▁Last	-10.695
▁International	-10.6952
▁plans	-10.6953
▁comp	-10.6956
▁gambling	-10.6963
▁Point	-10.6964
minute	-10.6967
▁arrange	-10.697
▁Or	-10.6983
▁penny	-10.7002
▁Palazzo	-10.701
te	-10.7013
▁taxes	-10.7017
▁Spent	-10.702
▁assigned	-10.7023
▁extras	-10.7027
▁surroundings	-10.703
▁Iberostar	-10.7035
▁shocked	-10.7039
▁varied	-10.7044
▁apology	-10.706
▁spaces	-10.7062
▁Needless	-10.7066
ry	-10.7067
▁unlike	-10.7067
▁slots	-10.7069
ty	-10.7074
▁deals	-10.708
▁Love	-10.7083
▁remembered	-10.7084
can	-10.7094
▁marina	-10.7107
▁names	-10.7114
▁schedule	-10.7126
▁egg	-10.7131
▁continue	-10.7145
---	-10.7146
▁rail	-10.7148
▁inn	-10.7154
▁Enjoy	-10.7171
▁oh	-10.7181
▁helps	-10.7181
▁Mark	-10.7182
▁sausage	-10.7211
over	-10.7214
▁di	-10.7215
▁Queen	-10.7216
▁afraid	-10.7216
œ	-10.7227
▁rush	-10.7229
▁paradise	-10.7238
▁5-10	-10.7239
▁Platinum	-10.7242
▁Aria	-10.7248
▁program	-10.7251
▁teenagers	-10.7253
ling	-10.7261
▁sandwich	-10.7272
▁fourth	-10.7276
▁checkin	-10.728
▁eager	-10.728
▁Deluxe	-10.7283
▁Arrived	-10.7289
▁palm	-10.7293
▁theater	-10.7295
▁mattresses	-10.7298
▁Pantheon	-10.7305
▁cons	-10.7311
ter	-10.7313
▁cheerful	-10.7317
▁dealt	-10.7334
▁garbage	-10.7341
▁drawers	-10.7344
▁peace	-10.7344
▁tasted	-10.7346
▁accomodation	-10.7351
▁chocolates	-10.7352
▁nasty	-10.7354
▁Amazing	-10.7357
▁Wifi	-10.736
▁Executive	-10.7374
▁boardwalk	-10.7375
▁Year	-10.7376
▁cooking	-10.7383
▁35	-10.7392
▁pub	-10.7394
▁$200	-10.7397
▁Dallas	-10.7412
▁alley	-10.7416
▁snorkel	-10.7423
▁aspect	-10.7443
▁cancelled	-10.7444
right	-10.7455
▁Before	-10.7457
7	-10.7468
▁pointed	-10.7471
▁Sofitel	-10.7472
▁DVD	-10.7473
▁pancakes	-10.7476
▁followed	-10.7479
▁USD	-10.748
▁ambience	-10.7489
▁4-	-10.749
▁unpleasant	-10.7491
▁$40	-10.7501
▁entertaining	-10.7504
▁server	-10.7511
▁foods	-10.7514
Fi	-10.7517
15	-10.7518
▁80	-10.7521
▁plugs	-10.7526
time	-10.7536
▁Time	-10.7539
▁plush	-10.7542
▁wind	-10.7546
▁consisted	-10.7549
ur	-10.7551
▁California	-10.7553
▁$3	-10.7563
▁Princess	-10.7568
▁van	-10.7572
me	-10.7576
▁Perhaps	-10.7579
where	-10.7585
▁prime	-10.7589
▁deli	-10.7591
ra	-10.7601
house	-10.7607
▁falling	-10.7607
▁Hampton	-10.7608
▁Too	-10.7608
9	-10.7612
▁enormous	-10.7615
▁leisure	-10.7634
They	-10.7638
▁Jan	-10.7642
▁Roma	-10.7655
▁Pier	-10.7659
▁Thursday	-10.7664
don	-10.7666
▁vanity	-10.7668
Our	-10.7669
▁loungers	-10.7671
▁mom	-10.7672
▁levels	-10.7676
▁factor	-10.7681
▁hey	-10.769
▁Australia	-10.7691
▁knows	-10.7699
▁beverages	-10.7706
▁dancing	-10.771
▁Rico	-10.7712
▁recomend	-10.7714
▁Ka	-10.7716
▁Bavaro	-10.7724
▁shouldn	-10.7729
▁reccomend	-10.7735
鈥檚	-10.7741
▁nobody	-10.775
▁events	-10.7768
▁photo	-10.7779
▁happening	-10.7792
▁confirm	-10.7797
▁Circus	-10.7798
▁More	-10.7802
▁resturants	-10.7803
▁solid	-10.7805
ch	-10.7808
▁broke	-10.7808
▁quarter	-10.7809
▁Branson	-10.7813
▁row	-10.7827
▁umbrellas	-10.7833
▁Hotwire	-10.7835
▁eaten	-10.7835
▁vibe	-10.7839
▁accept	-10.7841
6	-10.7841
▁suited	-10.7843
▁Monte	-10.7846
▁Price	-10.7847
▁Carlo	-10.7853
!!!!!	-10.7856
▁eateries	-10.7863
▁birds	-10.7863
▁extensive	-10.7864
▁dingy	-10.7873
service	-10.7877
▁29	-10.7886
▁hung	-10.789
▁IT	-10.79
▁Al	-10.7915
▁delighted	-10.7915
▁blankets	-10.7918
▁friendliness	-10.7922
▁Dec	-10.7923
▁seconds	-10.7926
▁smells	-10.7926
▁stone	-10.7935
▁Hall	-10.7937
▁bites	-10.7939
▁immediate	-10.7949
▁supplied	-10.7953
▁excursion	-10.7971
▁tall	-10.7971
▁faces	-10.7976
▁(5	-10.798
▁accomodate	-10.7982
▁Embassy	-10.7985
▁italian	-10.7985
▁halls	-10.7986
▁Dinner	-10.7991
▁nightmare	-10.7997
▁unusual	-10.8003
▁N	-10.8017
▁Ask	-10.8023
▁daughters	-10.8028
▁lagoon	-10.8035
▁anytime	-10.8036
▁bikes	-10.8043
lo	-10.8049
▁waterfront	-10.8058
▁beauty	-10.8061
▁weak	-10.8062
▁concerns	-10.8065
▁Apple	-10.808
▁younger	-10.8081
▁chips	-10.8083
▁smallest	-10.8085
nice	-10.8086
who	-10.8102
▁establishment	-10.8108
▁crew	-10.8124
▁classic	-10.8126
▁LCD	-10.813
▁warning	-10.8133
▁Rue	-10.8134
▁amazed	-10.8143
friendly	-10.8143
My	-10.8163
▁hole	-10.8166
▁Bring	-10.8167
ier	-10.8174
▁foyer	-10.8176
▁funky	-10.8178
▁sides	-10.8179
▁slot	-10.8185
▁leaves	-10.8198
▁priceline	-10.8199
▁shelf	-10.8202
▁outlets	-10.8209
▁handled	-10.8222
▁def	-10.8223
▁Travel	-10.8232
▁Bad	-10.8236
▁cases	-10.8247
▁kinds	-10.825
▁specific	-10.8259
▁boring	-10.826
▁seven	-10.8268
▁respect	-10.8274
▁channel	-10.828
▁TI	-10.8283
No	-10.8294
▁servers	-10.8295
▁blanket	-10.8301
con	-10.8302
▁passing	-10.8302
8	-10.8311
▁buying	-10.8311
▁Court	-10.8318
▁Drinks	-10.8334
▁unbelievable	-10.8334
▁whatsoever	-10.8342
bed	-10.8343
▁Turkish	-10.8349
except	-10.835
▁Kingdom	-10.8355
▁avenue	-10.8356
▁news	-10.8361
▁began	-10.8361
▁fireplace	-10.8361
▁eyes	-10.8365
▁dinners	-10.8366
▁dirt	-10.8372
suite	-10.8393
▁majority	-10.8396
▁(3	-10.8402
ne	-10.8403
▁Port	-10.8408
▁damp	-10.8418
▁3-	-10.8419
▁gate	-10.8421
▁wonderfully	-10.8426
▁courtesy	-10.8434
▁HOTEL	-10.8437
▁tubs	-10.8441
▁heartbeat	-10.8446
▁transit	-10.8447
▁Instead	-10.8451
▁Dam	-10.8453
▁V	-10.846
30	-10.8469
▁closing	-10.8474
▁dump	-10.8474
▁pet	-10.8489
▁resturant	-10.8497
mo	-10.8497
▁listed	-10.8498
TM	-10.8527
▁soda	-10.8541
▁supply	-10.8549
▁disturb	-10.8558
▁tough	-10.8559
▁typically	-10.8564
▁freshly	-10.8569
▁hospital	-10.8574
▁yummy	-10.8581
▁anymore	-10.8582
銇	-10.8582
▁Radisson	-10.8583
▁Notre	-10.8583
▁regularly	-10.8584
▁switched	-10.8586
▁Second	-10.8591
▁IS	-10.8592
▁l	-10.8594
after	-10.8595
▁require	-10.8602
▁Note	-10.8605
pool	-10.8605
▁brown	-10.8619
▁historical	-10.8621
▁Rambla	-10.8622
▁teenage	-10.8623
▁describe	-10.8628
▁equally	-10.8628
se	-10.863
▁comparable	-10.8636
▁palace	-10.8638
mail	-10.8642
▁Re	-10.8646
▁washing	-10.8657
▁cooler	-10.866
▁LAX	-10.8662
▁peeling	-10.8666
All	-10.8666
▁rides	-10.8668
▁tap	-10.8672
▁?	-10.8674
▁department	-10.8675
▁LOVED	-10.8675
▁earplugs	-10.8689
▁Signature	-10.8689
▁Hawaiian	-10.8701
▁umbrella	-10.8704
▁jet	-10.8724
▁gold	-10.8735
▁Magic	-10.874
▁Back	-10.8741
▁walkway	-10.8744
▁100%	-10.8746
▁relaxation	-10.8747
▁improve	-10.8748
▁Could	-10.8752
▁arrangements	-10.8768
▁rarely	-10.8769
▁FREE	-10.8771
▁casual	-10.8784
▁serviced	-10.8785
▁Always	-10.8791
▁wallpaper	-10.8791
▁stuffy	-10.8801
▁$12	-10.8813
);	-10.8813
▁lobster	-10.8816
▁selling	-10.8817
▁Probably	-10.8819
▁peak	-10.8822
ley	-10.8823
▁jungle	-10.8832
▁Real	-10.8837
what	-10.8851
▁mexican	-10.8851
▁dressed	-10.8853
▁Dame	-10.8861
▁specifically	-10.8867
▁sounded	-10.8877
H	-10.8881
ton	-10.8881
▁escape	-10.8884
▁delight	-10.8885
▁pop	-10.8885
▁continued	-10.8886
▁baggage	-10.8886
▁Mile	-10.8891
▁tennis	-10.8893
▁emailed	-10.8897
▁Americans	-10.8897
In	-10.8899
▁YOU	-10.8901
▁Comfortable	-10.8908
▁5*	-10.8909
▁signal	-10.891
▁travels	-10.8919
▁everytime	-10.892
Overall	-10.8929
▁portions	-10.8939
▁wont	-10.8939
ro	-10.894
▁health	-10.8945
▁wrote	-10.8947
▁concert	-10.895
▁voucher	-10.8951
▁gas	-10.8952
▁Tokyo	-10.8954
▁stolen	-10.8954
▁Wow	-10.8965
▁selected	-10.8972
▁lanai	-10.8974
▁plaza	-10.8974
▁individual	-10.8977
▁hoped	-10.8977
▁noises	-10.8979
yes	-10.8979
▁message	-10.8984
▁college	-10.8987
▁Diamond	-10.8987
20	-10.899
▁match	-10.8996
You	-10.8996
▁freeway	-10.8997
▁fireworks	-10.9001
▁owned	-10.9004
▁improved	-10.901
▁heater	-10.9014
▁Car	-10.9024
▁marks	-10.9025
▁tray	-10.9042
▁odor	-10.9042
▁reminded	-10.9056
os	-10.9058
▁woken	-10.9063
▁architecture	-10.9066
li	-10.9069
▁wing	-10.9075
▁smelly	-10.908
▁fly	-10.9081
▁cancel	-10.9082
▁minimum	-10.9084
▁wooden	-10.9096
`	-10.9097
▁gross	-10.9099
▁drunk	-10.9099
▁Lodge	-10.91
▁Phoenix	-10.91
▁suitable	-10.9116
▁ball	-10.9117
▁2010	-10.9135
▁meters	-10.9141
▁mountains	-10.9145
▁awake	-10.915
▁IN	-10.9152
▁settled	-10.9166
▁Which	-10.9174
▁manner	-10.9177
▁code	-10.9181
▁housekeeper	-10.9183
▁changes	-10.9185
ED	-10.9186
▁length	-10.9192
▁Art	-10.9193
ri	-10.9195
▁complementary	-10.9196
▁mess	-10.9201
▁allows	-10.922
size	-10.9224
▁Paradise	-10.9239
▁dine	-10.9241
▁saving	-10.9242
when	-10.9248
▁genuinely	-10.927
▁Motel	-10.9273
▁Apparently	-10.928
▁plasma	-10.9284
▁suggestion	-10.9295
▁Planet	-10.9298
ally	-10.93
▁benefit	-10.9307
▁occupied	-10.9309
▁coupon	-10.931
▁newspaper	-10.932
z	-10.932
▁70	-10.9325
▁turns	-10.9326
▁claim	-10.9333
▁screaming	-10.934
▁lamp	-10.9343
▁camera	-10.9352
▁Rialto	-10.9353
▁Rio	-10.9358
▁Catalunya	-10.9359
▁comfortably	-10.9362
▁oasis	-10.9373
▁Bally	-10.9374
▁everybody	-10.9374
ar	-10.938
▁Con	-10.9387
U	-10.9393
▁reached	-10.9393
▁item	-10.94
▁flew	-10.9401
▁J	-10.9409
0.00	-10.9409
▁dissapointed	-10.9417
▁happens	-10.9422
▁hike	-10.9424
▁supplies	-10.9426
▁smart	-10.9429
▁Top	-10.9432
▁improvement	-10.9437
▁pieces	-10.9442
▁confusing	-10.9447
▁brother	-10.9449
▁female	-10.9454
▁touring	-10.9457
▁homeless	-10.9458
▁practically	-10.9467
▁celebrating	-10.9468
▁annoyed	-10.948
▁wouldnt	-10.9486
▁insisted	-10.949
▁Fountain	-10.9505
▁STAY	-10.9507
▁th	-10.9509
▁rack	-10.9511
▁Hill	-10.9517
▁America	-10.9517
Hotel	-10.9521
style	-10.9521
water	-10.9526
???	-10.9526
▁Shower	-10.9533
▁deliver	-10.9536
▁tasting	-10.9543
▁repair	-10.9544
▁authentic	-10.9544
▁intimate	-10.9544
▁amazingly	-10.9546
▁Courtyard	-10.9547
▁fries	-10.9554
▁Taxi	-10.9569
▁jam	-10.9569
▁Louvre	-10.9572
▁books	-10.9579
▁ignored	-10.9588
▁:-)	-10.9589
▁aside	-10.959
▁freezing	-10.9595
▁sum	-10.9603
▁Within	-10.9606
▁Excalibur	-10.9612
▁heaven	-10.9619
▁informative	-10.9619
▁stick	-10.9623
▁greatest	-10.9623
▁importantly	-10.9623
▁corporate	-10.9629
▁join	-10.9635
▁asleep	-10.964
some	-10.9641
▁Caribe	-10.9653
▁scary	-10.9664
▁AMAZING	-10.9669
▁$8	-10.9672
▁disappoint	-10.968
▁m	-10.9681
▁stepped	-10.9685
▁frustrating	-10.9687
red	-10.9689
▁Darling	-10.969
▁2-	-10.9702
restaurant	-10.9703
▁[	-10.9714
▁Encore	-10.9721
▁attempt	-10.9721
▁dishwasher	-10.9723
▁Convention	-10.9725
▁manage	-10.9729
ca	-10.9736
▁boiled	-10.9736
▁ideally	-10.9741
et	-10.9742
▁allocated	-10.9745
▁meetings	-10.9756
▁airline	-10.9756
▁climb	-10.9765
▁v	-10.9767
▁leg	-10.9767
▁3)	-10.9773
▁host	-10.9774
▁lives	-10.9775
▁walkable	-10.9781
▁training	-10.9783
▁frills	-10.9788
ir	-10.9808
▁Duval	-10.9809
tea	-10.9811
▁Line	-10.9823
▁village	-10.9824
▁forced	-10.9824
▁toward	-10.983
▁trust	-10.9839
▁color	-10.9868
▁Casa	-10.9869
▁kinda	-10.987
▁ring	-10.9871
▁fellow	-10.9876
▁positives	-10.9881
▁bakery	-10.9886
▁telephone	-10.9888
more	-10.9894
▁mildew	-10.9895
▁leading	-10.9901
▁sub	-10.9906
▁Waldorf	-10.9912
▁caused	-10.9916
▁Subway	-10.992
▁dock	-10.992
▁starts	-10.9921
▁BEST	-10.9927
▁Floor	-10.9927
▁atrium	-10.9938
▁sets	-10.9939
▁bite	-10.9941
▁dress	-10.9943
▁greeting	-10.9948
▁involved	-10.9949
▁thrilled	-10.9951
茅	-10.9953
▁Victoria	-10.9954
▁failed	-10.9957
ta	-10.9961
▁assume	-10.9963
▁soup	-10.9968
▁chosen	-10.997
▁ill	-10.9972
40	-10.9975
▁holidays	-10.9975
▁burgers	-10.9977
▁sharing	-10.998
il	-10.9988
▁gripe	-10.999
▁coupons	-10.9993
▁rare	-10.9995
▁decoration	-11.0011
▁connect	-11.0018
▁accurate	-11.0019
▁ruined	-11.0019
▁compact	-11.0022
▁tipping	-11.0025
▁jump	-11.0026
▁oceanfront	-11.0028
▁outlet	-11.0029
▁holes	-11.0036
▁bowl	-11.0038
▁completed	-11.0048
▁repeat	-11.0058
▁Jacuzzi	-11.0061
▁named	-11.0074
▁fans	-11.0075
▁zoo	-11.0078
▁vendors	-11.0081
▁culture	-11.0082
▁15-20	-11.0083
ine	-11.0087
▁dive	-11.0087
hour	-11.0092
▁2-3	-11.0094
fridge	-11.0103
▁stress	-11.0104
▁fluffy	-11.011
▁yellow	-11.011
▁chill	-11.0118
▁al	-11.0124
▁gamble	-11.0131
▁exterior	-11.0134
ary	-11.0135
▁familiar	-11.0138
ft	-11.0138
▁blocked	-11.0155
▁lush	-11.0162
▁ease	-11.0168
ING	-11.0171
▁loose	-11.0172
▁church	-11.0178
▁electric	-11.0179
▁Mandarin	-11.0184
▁today	-11.0185
▁sky	-11.0185
▁ants	-11.0186
▁combination	-11.0189
▁radio	-11.0195
▁Kimpton	-11.0204
Â	-11.0212
▁Fortunately	-11.0214
▁Beware	-11.0214
▁volleyball	-11.0221
▁Tulum	-11.0222
▁Ha	-11.0222
▁unsafe	-11.0223
led	-11.0225
▁breath	-11.0226
▁greet	-11.023
▁lie	-11.0237
▁conditioned	-11.0243
▁availability	-11.0244
▁$7	-11.0248
▁pier	-11.0249
▁inconvenient	-11.025
▁vehicle	-11.0253
▁beef	-11.0256
▁Guest	-11.0266
▁Continental	-11.0267
▁virtually	-11.0274
▁skip	-11.0286
▁nature	-11.0289
ma	-11.029
▁approached	-11.0292
▁seated	-11.0295
▁doormen	-11.0295
▁Much	-11.0304
▁inner	-11.0306
▁im	-11.0308
▁search	-11.0313
▁dresser	-11.0318
▁printed	-11.0319
▁31	-11.0322
▁guard	-11.0322
▁shuttles	-11.0323
▁delivery	-11.0325
▁painted	-11.0327
▁Shopping	-11.033
▁massages	-11.0332
▁approximately	-11.0335
▁states	-11.0347
▁track	-11.0353
▁favor	-11.0354
▁Happy	-11.0373
▁shrimp	-11.038
▁(10	-11.0384
▁Quiet	-11.0385
▁exciting	-11.0395
▁sunny	-11.0396
▁hrs	-11.0398
▁10:30	-11.04
▁Roman	-11.0421
▁temp	-11.0427
▁beers	-11.043
▁appetizers	-11.043
ant	-11.0437
▁surf	-11.0437
▁navigate	-11.0438
▁ripped	-11.0438
▁walks	-11.044
▁coast	-11.0441
▁Especially	-11.0446
▁soaking	-11.0447
bedroom	-11.0448
▁handed	-11.045
▁dream	-11.0462
▁attraction	-11.0467
▁choosing	-11.0469
▁tucked	-11.0474
▁Studios	-11.0474
▁discounted	-11.0483
clean	-11.0483
▁France	-11.0483
▁China	-11.0484
▁Tip	-11.0489
▁!!!	-11.0495
king	-11.0501
▁stretch	-11.0501
▁Eve	-11.0504
▁nite	-11.0515
▁Tour	-11.0518
resort	-11.0519
▁terribly	-11.0525
▁resolved	-11.0526
▁Harrah	-11.0527
▁covers	-11.0537
▁count	-11.0537
▁category	-11.0543
▁Pizza	-11.0543
▁burger	-11.0545
▁hundred	-11.0552
▁tastes	-11.0559
▁Colosseum	-11.0559
▁commented	-11.056
ian	-11.0565
▁venture	-11.057
▁trams	-11.0585
▁disney	-11.0587
breakfast	-11.059
▁hire	-11.0592
▁Valley	-11.0592
▁Found	-11.0595
▁stale	-11.0606
check	-11.0613
▁cakes	-11.0613
▁(1	-11.062
▁opens	-11.0623
▁singles	-11.0623
▁Kowloon	-11.0629
▁proved	-11.0638
▁Keep	-11.0638
▁unacceptable	-11.0655
▁c	-11.0655
▁largest	-11.0655
▁incident	-11.0656
▁spoiled	-11.0657
▁Vacation	-11.0657
▁smiles	-11.0657
▁replace	-11.0665
▁Caesars	-11.0676
▁cabana	-11.0682
▁brunch	-11.0683
▁cuisine	-11.0688
▁2008	-11.0699
▁Sandos	-11.0699
▁rang	-11.0709
▁cared	-11.0709
▁2007	-11.0709
▁highest	-11.0713
▁stage	-11.0716
ber	-11.0724
▁Los	-11.0726
▁organized	-11.0732
▁summary	-11.0733
▁giant	-11.0741
ance	-11.0754
▁Coast	-11.0754
▁besides	-11.0754
▁markets	-11.0762
▁Maroma	-11.0762
▁scheduled	-11.0765
▁Value	-11.077
▁Travelodge	-11.077
▁unlimited	-11.0772
▁initial	-11.0773
▁Several	-11.0775
was	-11.0779
]	-11.0781
▁exhausted	-11.0784
▁video	-11.0785
hr	-11.0786
▁weight	-11.079
▁Your	-11.0791
▁THIS	-11.0791
▁genuine	-11.0794
▁#1	-11.0796
▁villas	-11.0797
▁Sept	-11.0799
▁Wyndham	-11.0801
▁update	-11.0802
▁Besides	-11.0802
▁encounter	-11.0804
▁WOW	-11.0807
▁replenished	-11.081
▁sorted	-11.0818
▁Spain	-11.0824
beach	-11.0829
▁blinds	-11.0835
▁2008.	-11.0837
▁letter	-11.0839
▁knowledge	-11.0841
land	-11.0843
▁Gardens	-11.0843
also	-11.0848
Room	-11.0854
45	-11.0855
▁tree	-11.0889
▁act	-11.0908
▁status	-11.091
▁stall	-11.091
La	-11.0911
▁energy	-11.0916
▁heads	-11.0917
▁malls	-11.0921
▁Blvd	-11.0921
▁turning	-11.0931
▁surely	-11.0935
▁onsite	-11.0937
▁diner	-11.0938
▁hello	-11.0943
▁2010.	-11.0943
▁Kids	-11.0944
▁Pike	-11.0944
▁2007.	-11.0952
▁dressing	-11.0955
▁led	-11.0957
▁yr	-11.0962
▁beaten	-11.0964
▁Enjoyed	-11.097
▁remove	-11.0973
▁steakhouse	-11.1005
maybe	-11.1005
▁stove	-11.1008
▁drag	-11.1015
▁towers	-11.1016
▁patient	-11.1021
▁disturbed	-11.1023
ha	-11.1023
▁bland	-11.1033
▁4*	-11.1034
▁basket	-11.1036
▁directed	-11.1039
▁happier	-11.1042
▁roads	-11.1046
▁Given	-11.1051
▁Hope	-11.1058
bus	-11.1065
▁Forum	-11.1073
away	-11.1073
▁greatly	-11.1075
ous	-11.1078
▁Steak	-11.108
▁mood	-11.1081
▁cares	-11.1093
▁6:30	-11.1097
▁Sultanahmet	-11.1102
▁rum	-11.1107
▁lacked	-11.1117
▁Junior	-11.1118
▁Gaslamp	-11.1121
▁phones	-11.1122
▁Mo	-11.1124
▁shot	-11.1127
▁comforter	-11.1131
▁wow	-11.1134
▁whirlpool	-11.114
▁Fisherman	-11.1154
▁lose	-11.1159
▁Hot	-11.1164
▁aircon	-11.1166
back	-11.1166
▁(4	-11.1172
▁stock	-11.1174
▁JW	-11.1175
▁porter	-11.1176
▁rocky	-11.1178
▁Oct	-11.118
▁Sol	-11.1181
▁discover	-11.1185
▁push	-11.1187
▁landscaping	-11.1192
▁~	-11.1194
air	-11.1198
▁knock	-11.1201
▁printer	-11.1201
▁Arc	-11.1202
▁button	-11.1203
▁hopefully	-11.1207
▁dis	-11.1208
▁Any	-11.1216
▁wave	-11.122
▁pesos	-11.1222
▁washed	-11.1224
▁aspects	-11.1228
ana	-11.1228
▁hearing	-11.1236
▁bedside	-11.1238
▁currently	-11.1239
▁Sure	-11.124
▁TA	-11.1242
▁Kaanapali	-11.1256
▁Zoo	-11.1271
▁picking	-11.1282
▁Melia	-11.1289
▁land	-11.1296
▁beverage	-11.1298
▁anybody	-11.1307
▁riding	-11.1311
▁rich	-11.1314
▁butter	-11.1318
▁rear	-11.1325
▁Shuttle	-11.1325
▁Huge	-11.1325
▁lotion	-11.1326
▁Daytona	-11.133
▁filling	-11.1342
▁Nov	-11.1344
▁vouchers	-11.1346
▁sparkling	-11.1347
▁nightclub	-11.135
▁Majestic	-11.1358
▁stories	-11.1361
▁vending	-11.1361
▁hundreds	-11.1362
▁RIU	-11.1364
▁selections	-11.1383
two	-11.1386
▁Renaissance	-11.1386
▁Oriental	-11.1387
▁powerful	-11.1397
io	-11.1397
▁rained	-11.1397
hot	-11.1401
▁premises	-11.1408
▁colleagues	-11.1412
da	-11.1415
▁clothing	-11.1416
00	-11.1421
▁adventure	-11.1422
▁desserts	-11.1422
▁prepare	-11.1427
▁concrete	-11.1431
▁fried	-11.1436
▁ordinary	-11.1457
▁apologized	-11.1458
▁reliable	-11.1465
▁responsive	-11.147
▁WIFI	-11.1471
▁9:30	-11.1471
▁airy	-11.1472
▁lamps	-11.1474
▁brick	-11.1477
▁Xcaret	-11.1479
▁suspect	-11.1484
men	-11.1492
▁ex	-11.1495
▁Getting	-11.15
▁panel	-11.1505
▁$4	-11.1516
ist	-11.1524
▁bare	-11.1525
▁bang	-11.1528
▁Tequila	-11.1533
▁$6	-11.1552
▁doorstep	-11.1562
▁fifth	-11.1576
▁gourmet	-11.1576
▁High	-11.1578
food	-11.1579
▁risk	-11.159
▁declined	-11.1594
▁humid	-11.1605
.......	-11.1606
▁vacations	-11.161
its	-11.162
▁managers	-11.1621
▁Cozumel	-11.1622
▁Look	-11.1625
▁cater	-11.1629
▁somehow	-11.1631
▁carried	-11.1631
▁meaning	-11.1634
▁gladly	-11.165
▁thus	-11.1653
▁baths	-11.1659
ul	-11.1659
▁trained	-11.1661
▁windy	-11.1663
▁waitresses	-11.1664
▁accepted	-11.167
▁definetly	-11.1676
▁potential	-11.1677
▁r	-11.1681
lly	-11.1686
▁ugly	-11.1688
▁scared	-11.1688
.50	-11.1689
▁lessons	-11.169
▁Awesome	-11.1694
▁Baltimore	-11.1705
▁brief	-11.1706
▁Entertainment	-11.1706
▁salads	-11.1712
▁fight	-11.1722
▁WE	-11.1724
▁plumbing	-11.1734
▁deserve	-11.1741
▁blow	-11.1741
▁smoothly	-11.1742
▁specialty	-11.1744
▁degree	-11.1744
priced	-11.1745
year	-11.1747
▁tapas	-11.1756
▁draw	-11.1764
▁Indian	-11.1764
▁vicinity	-11.1766
▁tad	-11.1772
▁railway	-11.1775
▁drawer	-11.1777
▁Years	-11.179
▁responded	-11.1798
▁Tuesday	-11.1807
▁frozen	-11.1807
▁Residence	-11.1813
▁bathrobes	-11.1814
▁current	-11.1819
▁toilets	-11.182
▁legs	-11.184
▁fiance	-11.1841
▁satisfactory	-11.1851
▁Quite	-11.1851
▁Sunset	-11.1857
▁forgotten	-11.1857
appointed	-11.1858
▁parties	-11.1862
▁smelt	-11.1862
ate	-11.1864
▁appearance	-11.1869
▁bored	-11.1877
▁x	-11.1879
▁trade	-11.188
▁split	-11.188
▁AT	-11.1881
▁flush	-11.1889
▁pastry	-11.1892
▁Steakhouse	-11.1898
▁Easter	-11.19
▁upgrading	-11.1901
▁excuse	-11.1903
▁carts	-11.1909
▁ROOM	-11.1912
▁fortunate	-11.1912
▁John	-11.1916
▁warmly	-11.192
▁exact	-11.1929
▁....	-11.1933
▁Avoid	-11.1933
▁multi	-11.1934
▁listening	-11.1935
▁inch	-11.1937
▁Bottom	-11.1945
▁Excellence	-11.1951
small	-11.1953
▁routes	-11.1966
▁Apart	-11.1969
▁8:30	-11.1969
▁AAA	-11.197
▁metres	-11.1978
▁clients	-11.1979
0	-11.1988
▁pro	-11.1998
▁fussy	-11.2001
▁Thanksgiving	-11.2008
▁cap	-11.2012
▁Comfort	-11.2013
▁lounges	-11.2013
▁fitted	-11.2015
▁dim	-11.2015
▁kindly	-11.2018
▁criticism	-11.2022
▁til	-11.2029
▁warmer	-11.203
▁deserves	-11.2031
▁consistently	-11.2033
▁unexpected	-11.2038
im	-11.2041
▁Tropicana	-11.2043
▁Business	-11.2047
▁Where	-11.2049
▁Black	-11.2068
▁Show	-11.207
▁Ca	-11.208
▁utensils	-11.2082
▁emails	-11.2083
▁healthy	-11.2086
▁renting	-11.2087
▁thermostat	-11.2088
▁shore	-11.2089
ig	-11.2089
▁liking	-11.2095
▁difficulty	-11.2102
▁=	-11.2105
▁proceeded	-11.2113
▁German	-11.2116
▁attendants	-11.2122
▁portion	-11.2122
▁7:30	-11.2133
▁seaweed	-11.2133
front	-11.2138
▁chat	-11.2144
▁#	-11.2148
▁aged	-11.215
▁fi	-11.215
▁dangerous	-11.2155
▁Champs	-11.2157
▁$60	-11.2157
▁Due	-11.2172
▁nap	-11.2179
▁chains	-11.2184
▁pounds	-11.2185
▁apple	-11.2193
▁heavenly	-11.2198
ent	-11.2218
▁ordering	-11.2219
ex	-11.2225
▁entirely	-11.223
▁ONLY	-11.224
▁guarantee	-11.2242
▁secluded	-11.2243
em	-11.2245
▁$300	-11.2251
▁smallish	-11.2253
!!)	-11.2254
▁des	-11.2261
les	-11.2275
▁Bathrooms	-11.2282
▁cat	-11.2285
▁numbers	-11.2285
▁confortable	-11.2289
▁priority	-11.2312
▁fuss	-11.232
▁bucket	-11.2324
?"	-11.2325
▁Pan	-11.2344
▁duvet	-11.2352
▁planes	-11.2352
▁banging	-11.2358
▁Co	-11.2359
▁immaculately	-11.2375
ble	-11.2379
▁cot	-11.238
▁tasteful	-11.2393
%	-11.2406
60	-11.2413
pe	-11.2413
▁2009	-11.2419
50	-11.242
▁reputation	-11.2421
▁stomach	-11.2433
▁apologetic	-11.2434
▁requesting	-11.2439
▁Novotel	-11.2443
▁Trump	-11.2443
▁stored	-11.2448
▁Kitchen	-11.2449
▁royalty	-11.2456
▁significant	-11.246
▁Couldn	-11.2464
▁doubles	-11.2468
▁granite	-11.2478
▁understanding	-11.248
80	-11.2481
▁Un	-11.2494
had	-11.2494
▁End	-11.2496
ER	-11.2497
▁refurbishment	-11.2499
both	-11.25
X	-11.2501
▁payment	-11.2504
▁speaks	-11.2509
▁Bell	-11.251
▁expense	-11.2511
▁ventilation	-11.2512
▁3:00	-11.2515
▁gel	-11.2521
▁venue	-11.2527
±	-11.2528
tel	-11.2529
▁realised	-11.2531
▁delayed	-11.2531
ey	-11.2532
▁Drive	-11.2543
▁upgrades	-11.2544
▁tho	-11.2546
▁vaporetto	-11.2547
▁contained	-11.2548
▁Marks	-11.2549
▁Three	-11.2553
▁dined	-11.2558
▁Sometimes	-11.2566
▁Long	-11.2571
▁Luxor	-11.2575
▁Book	-11.2582
staff	-11.2586
▁scale	-11.2588
▁Pretty	-11.2594
▁pair	-11.2597
▁Circular	-11.261
▁searching	-11.2615
▁visitor	-11.2622
▁letting	-11.2624
▁dealing	-11.2629
▁colleague	-11.2635
▁belongings	-11.2644
▁h	-11.2646
▁Standard	-11.2651
▁shallow	-11.2654
▁hell	-11.2683
around	-11.2692
▁stain	-11.2699
▁David	-11.2699
▁‘	-11.2702
▁Canyon	-11.2708
▁DR	-11.2712
US	-11.2713
▁memories	-11.2715
bo	-11.2719
▁Who	-11.272
▁$35	-11.2725
▁Space	-11.2732
▁chilly	-11.2734
screen	-11.2739
▁claimed	-11.2749
▁drank	-11.275
▁hr	-11.2752
▁select	-11.2759
▁cracked	-11.2759
try	-11.2764
hi	-11.2766
▁sits	-11.2769
▁pubs	-11.2773
▁11:00	-11.2773
use	-11.2774
▁personable	-11.2779
▁piano	-11.2779
▁Angeles	-11.2779
▁whom	-11.2783
▁reply	-11.2786
11	-11.2787
▁outrageous	-11.2792
▁luckily	-11.2793
▁menus	-11.2799
▁Towers	-11.2802
▁signed	-11.2803
▁Modern	-11.2805
▁3-4	-11.2814
▁colors	-11.2824
▁$150	-11.2827
▁apprehensive	-11.2827
▁platinum	-11.2827
▁fashion	-11.2829
▁drapes	-11.2831
▁reality	-11.2834
▁allowing	-11.2836
▁organised	-11.284
▁underneath	-11.2847
▁Latin	-11.2847
▁description	-11.2854
€¦	-11.2857
conditioning	-11.2865
▁ridiculously	-11.2866
▁function	-11.287
▁Sophia	-11.2879
▁Family	-11.288
▁hangers	-11.2888
▁american	-11.2894
▁solo	-11.2899
Breakfast	-11.2907
▁quoted	-11.2908
▁opt	-11.2909
car	-11.291
▁Management	-11.2912
▁ruin	-11.2915
▁appropriate	-11.2916
▁300	-11.2916
ge	-11.2922
▁2006.	-11.2922
▁support	-11.2927
▁sirens	-11.2927
▁Main	-11.293
▁overlook	-11.2931
▁baked	-11.2949
▁challenge	-11.2949
ring	-11.2949
▁electrical	-11.296
▁appliances	-11.2962
▁laugh	-11.2963
▁Conrad	-11.2967
▁Firstly	-11.2971
son	-11.2971
▁alright	-11.2974
▁blown	-11.2977
▁Sofia	-11.298
▁Pools	-11.2985
▁forth	-11.2989
▁2006	-11.2993
▁4)	-11.2996
▁ammenities	-11.2997
▁England	-11.2997
▁Those	-11.3
▁offerings	-11.3005
▁oven	-11.3011
▁bills	-11.3022
▁rice	-11.3027
▁ultra	-11.303
▁Later	-11.303
her	-11.3032
▁Fran	-11.3033
▁Hyde	-11.3037
▁Sat	-11.304
▁carpeting	-11.3041
▁staircase	-11.3042
▁Nugget	-11.3046
▁secret	-11.3066
▁limo	-11.3071
▁queues	-11.3076
▁payed	-11.3078
▁Regency	-11.3079
▁cleaners	-11.3085
▁unhappy	-11.309
ut	-11.31
▁staffed	-11.3101
As	-11.3102
▁pricing	-11.3116
▁boxes	-11.312
▁Sky	-11.312
▁houses	-11.3139
she	-11.3139
▁appealing	-11.314
▁marked	-11.3147
rooms	-11.3147
▁Gate	-11.3153
▁destinations	-11.3153
▁escorted	-11.3154
J	-11.3155
▁male	-11.3156
▁Hills	-11.3158
▁Man	-11.3163
▁Republic	-11.3165
▁zero	-11.3166
?!	-11.3168
▁stands	-11.3172
▁fashioned	-11.3182
▁albeit	-11.3184
▁Lunch	-11.3186
▁blood	-11.3187
▁oriented	-11.3198
▁Whilst	-11.3207
ah	-11.3208
▁efficiently	-11.321
ive	-11.3221
▁Terrace	-11.3223
▁Bahia	-11.3223
▁eight	-11.3231
▁hubby	-11.3234
▁useless	-11.3235
▁32	-11.3236
▁dusty	-11.3238
▁pros	-11.3241
▁understood	-11.3247
▁Actually	-11.3247
▁Wednesday	-11.325
▁concept	-11.3255
▁teens	-11.3255
▁joined	-11.3256
▁McDonalds	-11.3261
▁Theatre	-11.3261
▁toaster	-11.3263
▁opposed	-11.3267
▁definite	-11.3269
▁Hi	-11.3274
▁Michael	-11.3281
▁Fabulous	-11.3284
▁ft	-11.3287
dryer	-11.3289
▁Yucatan	-11.3294
town	-11.3295
▁spare	-11.3301
▁croissant	-11.3302
▁Villas	-11.3303
▁grateful	-11.3309
▁Saint	-11.3315
▁espresso	-11.3315
▁goodness	-11.3319
▁arm	-11.3319
▁separated	-11.3319
▁waking	-11.3322
▁inches	-11.3335
▁500	-11.3338
▁according	-11.334
▁tops	-11.3345
▁weights	-11.3348
▁Sun	-11.3352
▁Security	-11.3359
201	-11.3361
▁damage	-11.3362
▁retreat	-11.3366
▁Unless	-11.3366
▁western	-11.3367
▁British	-11.3376
▁supposedly	-11.3378
▁ensuite	-11.3394
LY	-11.34
▁fittings	-11.3403
▁None	-11.3408
▁hi	-11.341
▁capacity	-11.341
▁awkward	-11.3415
▁honor	-11.3415
▁storm	-11.3415
▁crib	-11.342
▁General	-11.3429
au	-11.3429
▁partying	-11.343
▁Palms	-11.3431
▁yelling	-11.3435
um	-11.3439
25	-11.3442
▁york	-11.3448
So	-11.3452
▁turndown	-11.3454
▁wearing	-11.3456
▁turtles	-11.3456
When	-11.3457
▁SPG	-11.3458
▁regardless	-11.3459
▁reccommend	-11.3463
ba	-11.3468
▁carrying	-11.3471
▁pampered	-11.3473
▁automatically	-11.3476
▁confused	-11.348
▁praise	-11.3482
(113	-11.3484
▁cupboard	-11.3485
▁surprising	-11.3494
▁lead	-11.3495
▁hurt	-11.3495
▁restuarants	-11.3498
▁conversations	-11.3502
▁vent	-11.3506
▁loudly	-11.351
▁industry	-11.351
▁explanation	-11.3514
ise	-11.3514
▁Honolulu	-11.3517
▁dip	-11.3518
▁mirrors	-11.3521
▁mark	-11.3524
▁Lastly	-11.3526
▁magical	-11.3527
▁conditions	-11.3533
▁Out	-11.3533
▁Castle	-11.3534
▁Towels	-11.354
di	-11.3541
▁approach	-11.3542
▁amenity	-11.3545
▁Train	-11.3552
▁$14	-11.3553
▁comped	-11.3559
▁perks	-11.3562
▁10:00	-11.3566
▁ruins	-11.3567
▁frankly	-11.3569
▁rome	-11.3574
ni	-11.3575
▁closes	-11.3581
▁god	-11.3585
▁wherever	-11.3585
▁Doubletree	-11.3587
▁lying	-11.3587
too	-11.3589
person	-11.3595
▁medium	-11.3595
▁prepaid	-11.3601
▁Special	-11.3604
que	-11.3607
▁san	-11.3607
▁waterfall	-11.3609
▁groceries	-11.3611
▁Better	-11.3612
▁steal	-11.3621
▁avoided	-11.3623
▁rainy	-11.3625
▁hurry	-11.3629
▁Basically	-11.3629
▁dozen	-11.3634
▁).	-11.3636
▁sauce	-11.3637
▁phoned	-11.3637
▁twenty	-11.3639
▁y	-11.3642
▁electronic	-11.3642
▁salt	-11.3646
▁net	-11.3647
▁depressing	-11.365
▁strawberries	-11.365
▁Oahu	-11.3657
▁somebody	-11.3657
▁Turkey	-11.3667
etc	-11.3676
▁pitch	-11.368
▁treatments	-11.3681
▁accommodated	-11.3681
▁se	-11.3686
▁visible	-11.3695
▁plants	-11.3702
▁respond	-11.3703
▁Staying	-11.3707
▁delay	-11.371
▁remind	-11.3713
▁consistent	-11.3714
▁depends	-11.3725
▁indicated	-11.3726
▁Walgreens	-11.3727
▁cabanas	-11.3728
id	-11.3734
▁inform	-11.3738
▁Gym	-11.3742
▁2012	-11.3742
▁load	-11.3748
▁wired	-11.3752
▁Flamingo	-11.3759
▁former	-11.3759
▁2009.	-11.3769
▁football	-11.3777
get	-11.379
▁Dont	-11.3805
Intercontinental	-11.3807
▁tacky	-11.3809
hrs	-11.381
▁transfers	-11.3824
▁Ferry	-11.3827
▁Capri	-11.3833
▁warn	-11.3834
▁Obviously	-11.3834
again	-11.3836
walk	-11.3837
▁wheelchair	-11.3838
▁Considering	-11.3842
▁sorts	-11.3845
▁valuables	-11.3847
▁holding	-11.3862
▁highlights	-11.3871
▁emergency	-11.3874
▁phenomenal	-11.3884
▁Okay	-11.3888
va	-11.3889
▁Bazaar	-11.3891
▁5:30	-11.3891
▁isnt	-11.3897
▁converted	-11.3899
▁rose	-11.3909
▁soaps	-11.3911
▁wander	-11.3912
▁Charles	-11.392
▁courts	-11.392
ga	-11.3921
▁Remember	-11.3924
▁Epcot	-11.3935
▁students	-11.3935
▁sq	-11.3935
▁Regis	-11.3938
▁lodge	-11.3943
▁Night	-11.3955
▁sausages	-11.3955
▁doctor	-11.3956
▁Ko	-11.3963
▁needing	-11.3966
▁coke	-11.3969
▁Irish	-11.397
▁stating	-11.3972
▁crisp	-11.3985
most	-11.3985
▁suprised	-11.3989
▁guaranteed	-11.399
▁PR	-11.3994
▁mad	-11.3995
▁24/7	-11.4002
▁BBQ	-11.4011
▁potatoes	-11.4011
▁mountain	-11.4021
oh	-11.4023
▁George	-11.4024
▁friendliest	-11.4029
▁Ra	-11.4032
▁ONE	-11.4042
ably	-11.4042
▁locate	-11.4043
▁clerks	-11.405
▁expedia	-11.4051
▁Area	-11.4054
▁Customer	-11.4059
▁replacement	-11.4067
▁1.5	-11.4067
▁sandy	-11.4068
▁unbeatable	-11.4073
▁stopover	-11.4078
▁75	-11.408
▁flower	-11.4083
▁Spring	-11.4086
▁Experience	-11.4091
par	-11.4095
tic	-11.4097
▁condos	-11.4097
▁RER	-11.41
▁42	-11.4101
▁topless	-11.4107
▁Hana	-11.4107
▁LV	-11.4112
ck	-11.4113
▁Convenient	-11.4115
▁impressions	-11.412
▁Double	-11.4121
▁persons	-11.4123
▁receipt	-11.4123
▁registration	-11.4125
▁Crowne	-11.4128
▁ignore	-11.4136
▁God	-11.4139
▁restuarant	-11.4142
▁Raffles	-11.4143
▁reef	-11.4149
▁magic	-11.4151
ated	-11.4152
▁le	-11.4153
▁win	-11.4155
▁GO	-11.4158
▁chinese	-11.4158
▁vs	-11.4159
▁REALLY	-11.4161
▁Tea	-11.4164
▁Mon	-11.4165
...)	-11.4166
▁splurge	-11.4169
▁vast	-11.4174
▁attempted	-11.4175
▁awhile	-11.4175
▁yoghurt	-11.4183
▁wallet	-11.4185
park	-11.4193
▁treats	-11.4195
▁bustling	-11.4198
▁White	-11.4199
▁affect	-11.4203
▁effect	-11.4205
▁norm	-11.421
▁EVER	-11.4213
▁receptionists	-11.4216
ke	-11.4221
▁countries	-11.4224
Rooms	-11.4225
▁active	-11.423
▁adjust	-11.4231
ized	-11.4234
▁Hagia	-11.4236
▁hut	-11.4236
new	-11.4236
▁supervisor	-11.4239
▁Extremely	-11.424
ad	-11.4242
▁patrons	-11.4244
▁leaked	-11.4254
▁elegance	-11.4254
▁ancient	-11.4257
?#	-11.426
▁ends	-11.4267
▁slamming	-11.4269
▁zone	-11.4269
▁knocked	-11.4271
▁Treasure	-11.4273
▁keeps	-11.4275
law	-11.4275
▁shock	-11.4275
▁agency	-11.4277
▁acted	-11.4279
▁expectation	-11.428
▁metal	-11.4285
▁miserable	-11.4292
light	-11.4292
▁showering	-11.4301
©	-11.4303
▁bathing	-11.431
other	-11.431
ible	-11.4311
ka	-11.4321
▁scenery	-11.433
▁shift	-11.4331
che	-11.4333
▁players	-11.434
▁catching	-11.4342
ue	-11.4344
▁fortune	-11.4344
▁wild	-11.4349
ina	-11.435
▁smelling	-11.4356
▁designer	-11.4357
▁lets	-11.4357
ster	-11.436
▁Prince	-11.4368
▁mouth	-11.4369
▁Complimentary	-11.4371
▁walkways	-11.4372
▁trick	-11.4375
▁oatmeal	-11.4378
▁Asia	-11.4381
▁Jackson	-11.4386
▁Unlike	-11.4386
▁FOR	-11.4394
▁pics	-11.4398
ner	-11.4398
▁skyline	-11.4401
▁collect	-11.4404
▁kick	-11.4406
▁connections	-11.4409
▁suits	-11.4412
j	-11.4415
17	-11.4417
▁minus	-11.4417
▁addressed	-11.442
▁humidity	-11.4424
▁wines	-11.4425
35	-11.4431
On	-11.4444
▁proof	-11.445
▁BART	-11.4452
But	-11.4453
▁mail	-11.4453
close	-11.4455
▁courses	-11.4457
sh	-11.4458
▁relief	-11.4458
▁LOCATION	-11.4458
▁himself	-11.4459
▁faster	-11.4462
▁record	-11.4463
▁raining	-11.4465
▁instructions	-11.4468
Great	-11.4468
▁occasional	-11.4473
▁rave	-11.4476
▁neighboring	-11.4477
▁Topkapi	-11.4477
▁earth	-11.4482
▁Fremont	-11.4492
▁reports	-11.4494
▁amongst	-11.4495
▁soak	-11.4496
▁lounging	-11.4496
week	-11.4497
Very	-11.45
iness	-11.4502
▁Stanley	-11.4504
▁Without	-11.4504
▁library	-11.4504
▁Additionally	-11.4508
parking	-11.451
70	-11.4524
▁Ibis	-11.4528
▁hairs	-11.4529
▁european	-11.4529
▁Navy	-11.4531
let	-11.4541
▁BIG	-11.4542
▁laying	-11.4545
▁disaster	-11.4546
▁display	-11.4551
▁recieved	-11.4552
▁teeth	-11.4556
▁moldy	-11.4558
▁wondering	-11.4564
▁EUR	-11.4569
▁Du	-11.4581
▁3.5	-11.4584
▁hospitable	-11.4585
▁hurricane	-11.4586
▁neighbours	-11.4586
▁volume	-11.4592
▁isolated	-11.46
▁doesnt	-11.46
▁rubbish	-11.4615
▁X	-11.4619
▁Shangri	-11.4623
▁diving	-11.4623
▁rollaway	-11.4623
▁ha	-11.4635
▁sugar	-11.464
▁50%	-11.4643
▁celebration	-11.4644
▁Macy	-11.4646
▁airconditioning	-11.4647
▁Porto	-11.4649
▁pushy	-11.465
▁Things	-11.465
▁dealers	-11.4654
▁specially	-11.4659
▁moderate	-11.466
▁pickup	-11.4661
▁preference	-11.4668
ten	-11.4668
▁compensation	-11.4677
▁gesture	-11.4681
▁term	-11.4682
▁2005.	-11.4686
▁copy	-11.4686
▁politely	-11.4687
▁printing	-11.4694
▁salmon	-11.4697
▁shutters	-11.4698
▁Decent	-11.4698
▁tear	-11.47
▁basics	-11.4703
▁150	-11.4705
non	-11.4707
home	-11.4713
▁carefully	-11.4715
▁replied	-11.4716
▁enclosed	-11.4717
▁landing	-11.4718
made	-11.4722
Ã	-11.4723
▁adds	-11.4726
▁mosquitos	-11.4727
▁sons	-11.4729
▁Public	-11.4732
▁screens	-11.4733
▁buck	-11.4736
▁lacks	-11.4738
▁poker	-11.474
▁CD	-11.474
▁catered	-11.4741
▁background	-11.4748
tion	-11.4752
▁lol	-11.4755
▁LOVE	-11.4755
▁Needle	-11.4755
▁Honeymoon	-11.4756
▁grilled	-11.4758
▁Caesar	-11.4758
▁regards	-11.4759
▁tag	-11.476
▁4-5	-11.4765
▁links	-11.4766
ence	-11.4778
Ha	-11.4782
op	-11.4792
▁desert	-11.4794
▁error	-11.4794
▁$16	-11.4799
▁corners	-11.4805
▁midtown	-11.4807
sa	-11.4809
▁page	-11.4817
▁Cross	-11.4819
▁feedback	-11.4819
▁mat	-11.482
▁apples	-11.4821
19	-11.4826
▁consideration	-11.4833
▁quirky	-11.4834
Food	-11.4838
▁caring	-11.4838
restaurants	-11.4839
▁trucks	-11.4839
▁Parisian	-11.4841
▁promise	-11.4842
pi	-11.4845
▁assortment	-11.4846
▁unfortunate	-11.4848
▁11:30	-11.485
▁OF	-11.4852
▁Marriot	-11.4852
▁max	-11.4853
▁Chelsea	-11.4858
▁treadmills	-11.486
▁overlooks	-11.4861
Staff	-11.4861
▁lodging	-11.4862
▁overwhelming	-11.4864
▁robe	-11.4872
▁coach	-11.4874
ice	-11.4874
▁Bath	-11.4876
▁Beverly	-11.4878
▁islands	-11.4878
▁Imperial	-11.4882
▁Maid	-11.4884
▁Rocks	-11.4885
▁overbooked	-11.4886
▁sensitive	-11.4886
▁Germain	-11.4887
port	-11.4888
▁modest	-11.4901
▁Kings	-11.4904
▁crash	-11.4906
▁Fresh	-11.4906
▁Fun	-11.4906
▁extreme	-11.4909
▁hosts	-11.4915
▁shortly	-11.4917
▁55	-11.4918
▁posh	-11.4918
▁truck	-11.4921
▁Lo	-11.4925
paid	-11.4929
▁balance	-11.4934
▁extensively	-11.4935
16	-11.4935
▁effective	-11.4936
▁2012.	-11.4941
▁tomorrow	-11.4946
▁stupid	-11.4947
▁Turn	-11.4949
▁endless	-11.4951
▁royal	-11.4951
▁Sha	-11.4951
▁cabinet	-11.4957
▁pots	-11.4961
▁brings	-11.4962
▁esp	-11.4966
▁WAS	-11.4994
▁Light	-11.5
▁biscuits	-11.5005
▁torn	-11.5007
▁$9	-11.5009
▁Tucan	-11.501
▁prevent	-11.5014
▁flatscreen	-11.5015
▁hated	-11.5017
▁controlled	-11.5019
▁lined	-11.502
▁warmth	-11.502
▁threw	-11.5022
▁Quality	-11.5026
▁assisted	-11.5032
▁intend	-11.5037
▁memory	-11.5038
▁Riverside	-11.5039
▁gear	-11.5039
ak	-11.5042
▁hostess	-11.5049
floor	-11.5049
▁operator	-11.5054
▁Someone	-11.506
▁pocket	-11.5067
▁closets	-11.5069
▁worries	-11.5074
▁Nathan	-11.5074
▁shades	-11.5075
▁mould	-11.5076
▁whose	-11.5078
12	-11.5078
▁stopping	-11.5081
▁Penn	-11.5081
▁Spacious	-11.5083
▁Same	-11.5088
▁Near	-11.5088
▁ability	-11.5096
▁caution	-11.5099
▁sunrise	-11.5099
▁knocking	-11.5105
▁PC	-11.5109
One	-11.511
▁assumed	-11.5119
▁extraordinary	-11.5119
▁slides	-11.5121
▁Sorry	-11.5122
▁extend	-11.5124
▁swam	-11.5125
▁Seine	-11.5127
▁Ma	-11.5139
lots	-11.5141
▁solution	-11.5141
▁$$	-11.5142
▁Honestly	-11.5144
▁Mini	-11.5148
▁Valentin	-11.5151
▁wandering	-11.5152
▁Vacations	-11.5152
▁$18	-11.5153
▁Based	-11.5153
▁Rose	-11.5156
▁featured	-11.5163
▁fold	-11.5167
▁ala	-11.5167
▁basin	-11.5175
▁pit	-11.5177
▁Coco	-11.5181
▁Thankfully	-11.5181
▁9:00	-11.5182
▁gifts	-11.5183
▁James	-11.5185
▁advertise	-11.5187
▁controls	-11.5188
nothing	-11.5189
▁Duomo	-11.5193
▁Di	-11.5201
‚¬	-11.5204
▁leak	-11.5213
▁WILL	-11.5217
▁coat	-11.5218
▁$80	-11.5223
▁2004	-11.5223
▁favorites	-11.5232
▁perfection	-11.5234
▁CBD	-11.5242
▁sadly	-11.5244
▁rushed	-11.5246
▁See	-11.5251
▁snow	-11.5252
▁crap	-11.5259
▁build	-11.5262
▁conclusion	-11.5275
▁Pro	-11.5279
▁Level	-11.5283
▁Checked	-11.5284
▁8:00	-11.5285
▁Prices	-11.5286
▁practice	-11.5289
▁f	-11.5295
▁chilled	-11.5298
▁hence	-11.53
18	-11.5301
▁tended	-11.5305
▁catering	-11.5306
▁benefits	-11.531
▁desire	-11.531
▁rules	-11.5319
ham	-11.532
how	-11.532
▁Worth	-11.532
▁yeah	-11.5322
▁barrier	-11.5327
▁Y	-11.5328
▁bellmen	-11.533
▁Reef	-11.5337
dy	-11.5339
13	-11.5339
▁undergoing	-11.535
▁pace	-11.5355
▁2005	-11.5357
▁communication	-11.536
wise	-11.5366
90	-11.537
▁press	-11.5372
05	-11.5372
▁keen	-11.5375
▁tiled	-11.5383
▁queens	-11.5383
▁flow	-11.5384
▁boards	-11.5391
▁pants	-11.5391
▁Van	-11.5392
ac	-11.5393
▁explaining	-11.5397
▁remained	-11.5398
▁network	-11.5404
▁Aug	-11.5405
▁financial	-11.5406
▁arrangement	-11.5407
▁perk	-11.5412
Do	-11.5415
▁limit	-11.5415
▁knowledgable	-11.5416
▁indifferent	-11.5422
▁primarily	-11.5425
▁shirt	-11.5425
▁Peter	-11.5427
▁residents	-11.5429
▁feed	-11.5433
For	-11.5438
▁7:00	-11.544
▁Canadian	-11.544
▁Parc	-11.5446
▁tequila	-11.5446
▁decorations	-11.5451
▁opera	-11.5451
▁ie	-11.5454
ding	-11.5458
▁appeal	-11.5467
▁representative	-11.547
▁granted	-11.5476
▁anyways	-11.5478
▁frame	-11.5478
▁Head	-11.5484
▁leaking	-11.5492
▁invited	-11.5494
med	-11.5497
▁father	-11.5501
▁ipod	-11.5506
▁SERVICE	-11.5509
long	-11.551
▁Ku	-11.551
▁disturbing	-11.5518
Ä	-11.5521
ming	-11.5522
run	-11.5523
▁Aside	-11.5523
▁crack	-11.5528
▁Placa	-11.5531
▁seedy	-11.5533
▁blame	-11.5536
▁$13	-11.5537
▁entertained	-11.5537
notch	-11.5538
▁joy	-11.5539
▁combined	-11.5544
▁smoked	-11.5548
really	-11.5548
▁reduced	-11.5551
▁sale	-11.5552
▁wasted	-11.5552
▁london	-11.5556
▁Vista	-11.556
▁readily	-11.5562
▁ratings	-11.5562
▁---	-11.5563
▁Animal	-11.5569
Not	-11.5569
▁University	-11.5573
plus	-11.5573
▁BE	-11.5578
▁el	-11.5584
▁His	-11.5586
▁singing	-11.5588
▁Full	-11.5589
▁housekeepers	-11.5589
▁themed	-11.5592
@	-11.5598
▁medical	-11.5598
▁AWESOME	-11.5603
ities	-11.5603
▁occasionally	-11.5606
▁structure	-11.5606
▁personality	-11.5613
board	-11.5614
▁angry	-11.5615
stop	-11.5618
▁jazz	-11.562
▁Wireless	-11.5624
▁Days	-11.5629
▁shady	-11.5633
▁dried	-11.5633
▁smoky	-11.5637
▁States	-11.564
▁law	-11.5642
▁Frank	-11.5645
▁mis	-11.5646
▁shoe	-11.5646
▁Thai	-11.5652
▁stadium	-11.5663
pa	-11.5666
▁Wing	-11.5672
▁hectic	-11.5672
▁pedestrian	-11.5675
▁Recently	-11.568
▁Hudson	-11.5684
▁pure	-11.5685
▁Looking	-11.5686
▁bookings	-11.5691
▁floating	-11.5692
▁bear	-11.5694
▁Ro	-11.5704
9.00	-11.5704
▁orders	-11.5705
▁sooo	-11.5713
▁rise	-11.5734
▁Superior	-11.5737
▁discounts	-11.5738
▁animal	-11.574
▁6:00	-11.5748
▁requires	-11.5751
▁waffle	-11.5753
▁solved	-11.5759
▁unwind	-11.5766
▁lap	-11.5767
▁Bosphorus	-11.5771
maintained	-11.5775
▁blew	-11.5784
▁sidewalk	-11.5785
▁asset	-11.5786
ti	-11.5787
▁restocked	-11.579
ped	-11.579
take	-11.5792
▁starbucks	-11.5792
▁misleading	-11.5797
▁HD	-11.5798
▁smokers	-11.5802
▁Tropical	-11.5807
▁newspapers	-11.5808
▁(6	-11.581
▁coral	-11.5811
▁CLEAN	-11.5814
▁Almost	-11.5814
▁fluent	-11.5816
ver	-11.5817
sp	-11.5818
▁MUST	-11.5818
▁Green	-11.5818
▁array	-11.5823
▁sleek	-11.5827
▁clientele	-11.5828
▁appetizer	-11.5833
▁oceanview	-11.5833
▁jets	-11.5833
▁created	-11.5839
▁farther	-11.5848
seeing	-11.5853
▁Condado	-11.5853
(191	-11.5854
▁Ate	-11.5855
▁Bill	-11.5856
▁edges	-11.586
excellent	-11.5861
▁semi	-11.5861
▁recall	-11.5861
▁formal	-11.5863
▁mosquitoes	-11.5863
▁mosquito	-11.5866
▁Burger	-11.5867
bath	-11.5868
▁pad	-11.5868
▁spoken	-11.587
▁Wine	-11.5872
▁satisfaction	-11.5875
▁4:00	-11.5877
▁ON	-11.5878
▁tricky	-11.5883
Bahn	-11.5888
▁Jose	-11.5892
▁porch	-11.5892
▁cuts	-11.5893
▁leads	-11.5895
▁Vdara	-11.5897
▁Five	-11.5899
▁voice	-11.5899
located	-11.59
▁•	-11.5902
▁Spice	-11.5903
▁arranging	-11.5906
▁4:30	-11.5911
lounge	-11.5914
▁Noise	-11.5915
▁afterwards	-11.5915
▁grabbed	-11.592
▁silly	-11.592
!"	-11.5924
▁Aqua	-11.5925
ating	-11.5929
▁neighbor	-11.593
▁Po	-11.5936
And	-11.5942
▁Seafood	-11.5942
▁mentioning	-11.5948
▁cordial	-11.5948
▁Mission	-11.595
▁fear	-11.5951
▁hesitant	-11.5955
▁demand	-11.5962
▁accross	-11.5964
▁Helpful	-11.5968
▁purposes	-11.597
▁Side	-11.5971
▁unprofessional	-11.5972
▁Made	-11.5977
▁elderly	-11.5981
▁$500	-11.5984
▁inquired	-11.5991
▁Called	-11.5991
booked	-11.5993
lu	-11.5993
▁ships	-11.5994
▁pricy	-11.5999
▁instance	-11.6001
rate	-11.6011
.95	-11.6021
▁hub	-11.6031
▁€	-11.6037
ery	-11.604
▁Sports	-11.604
▁grass	-11.6042
▁Negatives	-11.6043
▁bellhop	-11.6046
▁$75	-11.6053
▁Chris	-11.6058
▁Sq	-11.6059
▁passport	-11.606
▁desperate	-11.6063
▁dodgy	-11.6071
▁valets	-11.6071
▁tells	-11.6072
▁48	-11.6075
▁positioned	-11.6079
▁$45	-11.6083
▁HERE	-11.6084
▁beachfront	-11.6085
▁Triomphe	-11.6088
▁thankfully	-11.6091
▁Soho	-11.6091
▁foam	-11.6095
because	-11.6102
▁pride	-11.6102
▁g	-11.6106
▁iPod	-11.6106
▁duration	-11.6111
▁thoughtful	-11.6114
▁fo	-11.6117
ze	-11.6123
▁version	-11.6129
▁lunches	-11.613
▁foreign	-11.6137
▁wharf	-11.6142
▁thrown	-11.6144
▁dolphins	-11.6145
▁setup	-11.6146
▁lesson	-11.6147
▁yesterday	-11.6151
▁ATM	-11.6152
▁practical	-11.6153
▁vegetarian	-11.6154
▁log	-11.6156
▁claustrophobic	-11.616
▁promotion	-11.6163
ping	-11.6165
▁cleared	-11.6172
▁paris	-11.6173
IN	-11.6175
▁burn	-11.6177
▁avail	-11.6179
▁spoil	-11.618
▁correctly	-11.6182
▁omelet	-11.6184
ations	-11.6184
▁couches	-11.6188
▁shouting	-11.619
▁butler	-11.6192
▁Alex	-11.6194
▁makeup	-11.6196
▁cancellation	-11.6204
▁pipes	-11.6205
▁daytime	-11.6207
▁unbelievably	-11.621
▁mobile	-11.621
class	-11.6213
▁jams	-11.6214
▁create	-11.6215
▁pink	-11.6218
▁Powell	-11.6224
▁impersonal	-11.6228
▁squeezed	-11.6231
za	-11.6233
▁height	-11.6234
▁slip	-11.6237
▁las	-11.624
▁trek	-11.6244
▁pan	-11.6248
▁downfall	-11.625
▁matters	-11.626
▁scuba	-11.6265
▁communicate	-11.6267
▁thorough	-11.6267
▁kit	-11.6275
would	-11.6277
▁instant	-11.6281
ci	-11.6281
▁hills	-11.6281
▁cents	-11.6283
▁squeeze	-11.6285
▁chipped	-11.6288
however	-11.6288
▁donuts	-11.629
▁necessarily	-11.6292
▁penthouse	-11.6297
▁million	-11.6301
▁Watch	-11.6302
:00	-11.6303
▁caters	-11.6316
▁toddler	-11.6324
▁arcade	-11.6324
▁EXCELLENT	-11.6324
▁waters	-11.6328
▁Tours	-11.6331
▁Memorial	-11.6333
▁tremendous	-11.6335
▁viewing	-11.6336
▁yard	-11.6337
▁Deli	-11.6344
▁infinity	-11.6347
▁fishing	-11.635
08	-11.6355
ize	-11.636
▁occupancy	-11.6361
▁Gare	-11.6362
▁FOOD	-11.6367
▁Premier	-11.637
▁painting	-11.6375
(199	-11.6378
city	-11.6382
24	-11.6384
▁participate	-11.6391
▁EVERYTHING	-11.6393
▁sells	-11.6394
▁Points	-11.6396
▁DJ	-11.6398
▁Xel	-11.6398
▁establishments	-11.6402
▁Silver	-11.6412
▁washroom	-11.642
▁transferred	-11.6422
▁Terrible	-11.6431
▁Monaco	-11.6435
▁jobs	-11.6436
▁Navona	-11.644
▁banana	-11.644
▁Has	-11.6441
▁Paul	-11.6441
▁friendlier	-11.6445
▁cutlery	-11.6449
▁fake	-11.645
▁heavily	-11.6454
▁vary	-11.6469
55	-11.647
▁soooo	-11.647
▁steaks	-11.6472
▁crystal	-11.6472
▁signature	-11.6473
▁omelets	-11.6474
looking	-11.6478
▁Grounds	-11.6478
▁diamond	-11.6482
▁CA	-11.649
▁raised	-11.6492
▁Personally	-11.6496
▁tank	-11.6498
▁swing	-11.6498
▁blowing	-11.6503
▁equiped	-11.6506
big	-11.6507
▁antique	-11.6508
mi	-11.6509
▁packages	-11.651
probably	-11.6514
▁Terminal	-11.6514
▁exposed	-11.6515
▁bells	-11.6518
▁lousy	-11.6519
▁economy	-11.6519
Also	-11.6519
book	-11.652
▁concierges	-11.652
▁answering	-11.6522
▁Roosevelt	-11.6523
ins	-11.6524
▁flooded	-11.6526
lit	-11.6531
▁cleanest	-11.6535
▁spouse	-11.6538
▁$70	-11.6539
▁MUCH	-11.6542
▁Carlos	-11.6543
▁exquisite	-11.6554
▁realise	-11.6556
▁redone	-11.6556
▁candy	-11.6557
▁collection	-11.6558
▁flip	-11.6558
▁eve	-11.6559
▁CNN	-11.6562
▁Ramada	-11.6564
▁operate	-11.6571
▁Checking	-11.6574
▁Break	-11.6577
▁drops	-11.6577
▁unbearable	-11.658
▁bidet	-11.658
▁GOOD	-11.6585
▁Myself	-11.6585
▁rid	-11.6595
▁regard	-11.6596
▁10%	-11.6596
▁Magnificent	-11.6604
▁lowest	-11.6612
▁excessive	-11.6625
▁exclusive	-11.6625
▁camp	-11.6629
▁da	-11.6633
▁neck	-11.6634
▁Wish	-11.6636
▁24-	-11.6637
▁truth	-11.664
▁timely	-11.6651
▁worthwhile	-11.6658
near	-11.666
▁;	-11.6661
▁overhead	-11.6667
▁posts	-11.6669
standard	-11.667
po	-11.6673
▁faucet	-11.6676
▁inter	-11.6679
▁Fitness	-11.668
▁nine	-11.6681
▁Boulevard	-11.6684
Check	-11.6694
Beach	-11.6709
▁36	-11.6712
▁Robson	-11.6717
ned	-11.6718
,000	-11.6718
▁slippery	-11.6722
▁Fish	-11.6729
▁Generally	-11.673
▁rule	-11.673
▁outdoors	-11.6735
▁Dining	-11.6737
65	-11.6741
▁basketball	-11.6741
▁Orange	-11.6742
▁statement	-11.6742
▁apparent	-11.6744
▁Desert	-11.6746
▁professionalism	-11.6747
▁Save	-11.6749
▁Anniversary	-11.6756
▁kidding	-11.6756
▁hasn	-11.6762
▁stuffed	-11.6762
ap	-11.6766
........	-11.6766
▁thumbs	-11.6769
?).	-11.6771
▁refunded	-11.6771
hop	-11.6771
▁Seriously	-11.6775
▁anticipated	-11.6777
▁eater	-11.6777
wood	-11.6778
▁Affinia	-11.678
▁#2	-11.6782
▁THAT	-11.6784
▁specials	-11.6787
eg	-11.6789
▁becomes	-11.6791
mon	-11.6794
▁feather	-11.6795
RE	-11.6795
▁silver	-11.6799
▁borrow	-11.68
▁Bistro	-11.6804
▁dates	-11.6806
▁Am	-11.6807
▁piazza	-11.6808
▁Mac	-11.6809
▁PH	-11.6815
▁surface	-11.6825
▁tvs	-11.6828
▁consists	-11.683
▁cottage	-11.684
▁struggle	-11.6845
▁gay	-11.6845
▁chatting	-11.6848
▁internal	-11.685
▁loo	-11.6854
▁mounted	-11.6859
▁overwhelmed	-11.6862
ler	-11.6866
▁loaded	-11.6873
▁sucked	-11.6873
▁noticeable	-11.6876
▁Cosmopolitan	-11.6876
▁Mary	-11.6879
▁Hacienda	-11.6879
▁rely	-11.6884
▁languages	-11.6887
tercontinental	-11.6888
5.00	-11.6892
▁competent	-11.6902
▁brush	-11.6907
-10	-11.6908
▁Taxis	-11.691
▁random	-11.6913
▁skeptical	-11.6915
!!!!!!	-11.6919
▁0	-11.692
▁classes	-11.6921
ages	-11.6923
▁nuts	-11.693
▁mosque	-11.6933
▁remodeling	-11.6933
▁Trastevere	-11.6935
▁5:00	-11.6938
Z	-11.6939
▁obnoxious	-11.6939
▁PS	-11.6943
▁Her	-11.6945
desk	-11.6952
▁India	-11.6959
▁gaming	-11.696
▁Across	-11.696
ya	-11.6961
▁Fashion	-11.6964
▁Anne	-11.6964
▁loft	-11.6965
▁Recommend	-11.6965
▁compensate	-11.6966
▁understaffed	-11.6969
▁thier	-11.6975
▁relative	-11.6975
▁cappuccino	-11.6977
sorry	-11.6979
▁39	-11.6983
銉	-11.6985
▁tech	-11.6987
didn	-11.6987
▁resolve	-11.6996
▁essentially	-11.7
▁Chef	-11.7001
▁sometime	-11.7002
▁tries	-11.7004
▁cardio	-11.7005
▁Taksim	-11.7008
▁confusion	-11.7008
▁finest	-11.7009
▁shaded	-11.7015
▁spotty	-11.7016
▁Sands	-11.7018
▁commercial	-11.7023
ru	-11.7024
▁annual	-11.7025
▁websites	-11.7027
▁century	-11.7028
▁pork	-11.7038
spa	-11.704
▁wrap	-11.7046
▁Cheap	-11.7047
▁animation	-11.7047
▁detailed	-11.7048
▁Eaton	-11.7053
▁official	-11.7056
▁hide	-11.7062
▁dinning	-11.7062
train	-11.7064
▁requirements	-11.7067
▁Worst	-11.7067
ny	-11.7071
▁instantly	-11.7075
▁salsa	-11.7077
▁cloths	-11.7078
▁hotwire	-11.7078
▁accident	-11.7085
▁ANY	-11.7086
▁Lu	-11.7088
something	-11.7091
ward	-11.7093
▁settle	-11.7096
▁contrast	-11.7097
▁rentals	-11.7098
▁hook	-11.7101
▁aquarium	-11.7102
ee	-11.7107
▁Tiki	-11.7107
fast	-11.711
▁Palm	-11.7119
▁leather	-11.7127
▁Denny	-11.7131
tub	-11.7132
bahn	-11.7137
▁buzz	-11.7141
▁combo	-11.7144
▁cookie	-11.7147
▁waterfalls	-11.7148
▁Honors	-11.7154
▁Use	-11.7155
▁watered	-11.7156
▁dull	-11.7158
▁adding	-11.7166
▁handicapped	-11.7167
▁Boardwalk	-11.7172
▁Clarke	-11.7174
net	-11.7176
▁bands	-11.7177
club	-11.7177
▁spite	-11.7178
▁DON	-11.7184
▁aerobics	-11.7184
▁scam	-11.7189
▁playa	-11.719
▁companies	-11.7192
▁Swissotel	-11.7192
▁3:30	-11.7192
▁equal	-11.7192
▁Poor	-11.7198
▁lasted	-11.7199
▁33	-11.7201
▁sunscreen	-11.7203
75	-11.7207
make	-11.7215
▁pristine	-11.7217
type	-11.7217
▁wondered	-11.722
▁dad	-11.722
▁backwards	-11.722
▁scent	-11.7223
29	-11.7227
▁Usually	-11.7227
tra	-11.7231
▁marvelous	-11.7238
▁touched	-11.7242
▁flavor	-11.7244
▁sample	-11.7245
▁Bo	-11.7246
▁Cathedral	-11.7252
▁title	-11.7252
▁LOT	-11.7256
▁insulated	-11.7257
▁(7	-11.7261
▁Inner	-11.7263
▁landed	-11.7264
▁bridges	-11.7265
are	-11.7266
▁laughing	-11.727
▁notes	-11.7274
▁drug	-11.7277
▁pressed	-11.7278
▁Speaking	-11.7278
▁Flat	-11.728
▁Grande	-11.7281
▁$400	-11.7282
▁cent	-11.7286
▁Birthday	-11.7287
▁perspective	-11.7287
▁pleasing	-11.7293
▁goodies	-11.7297
▁vegetables	-11.7299
▁Whaler	-11.7303
▁substantial	-11.7305
▁Must	-11.7309
▁apologize	-11.731
▁nickel	-11.7313
▁competition	-11.7323
▁focus	-11.7324
▁Short	-11.7325
ons	-11.7328
▁mo	-11.7329
▁souvenirs	-11.7333
pp	-11.7334
▁freindly	-11.7338
Good	-11.7338
▁coffe	-11.734
▁notified	-11.7344
mp	-11.7351
▁race	-11.7354
▁3*	-11.7354
▁pond	-11.7357
▁sodas	-11.7357
▁Access	-11.7363
To	-11.7365
▁cartes	-11.7366
▁crab	-11.7368
▁crawling	-11.7371
▁Vi	-11.7371
▁Homewood	-11.7373
▁landscaped	-11.7378
▁Home	-11.7379
▁Decor	-11.7382
▁Jr	-11.7384
▁abundance	-11.7384
▁Seaworld	-11.7384
▁argue	-11.739
▁dime	-11.7393
▁Madison	-11.7394
▁repeatedly	-11.7396
▁skin	-11.7398
der	-11.74
cho	-11.7401
ised	-11.7404
gu	-11.7407
▁$11	-11.7407
▁restful	-11.7409
▁Felt	-11.7409
▁laughed	-11.742
▁tranquil	-11.7424
▁Select	-11.7429
▁diet	-11.7431
▁duck	-11.7435
▁Paddington	-11.744
▁false	-11.744
▁Se	-11.7446
▁fed	-11.7449
▁ceremony	-11.745
▁yoga	-11.7455
▁related	-11.7458
▁beforehand	-11.7471
▁conceirge	-11.7476
-5	-11.7477
▁Fine	-11.7479
▁Midtown	-11.7481
▁Compare	-11.7481
▁urine	-11.7481
▁Rd	-11.7482
▁frig	-11.7484
▁quicker	-11.7485
▁girlfriends	-11.7485
▁geared	-11.7486
▁Come	-11.7486
▁GM	-11.7487
▁Safe	-11.7488
▁repaired	-11.749
▁gap	-11.7491
▁5)	-11.7495
▁Sam	-11.7496
▁smack	-11.7497
▁su	-11.7497
ol	-11.7499
▁bedspread	-11.75
▁dedicated	-11.7502
▁baseball	-11.7502
▁skills	-11.7503
unless	-11.7504
▁remaining	-11.7506
▁Granted	-11.7506
▁Outside	-11.7507
▁Wall	-11.7507
▁overcrowded	-11.7509
▁serene	-11.7512
▁surly	-11.7524
▁fooled	-11.7525
double	-11.7538
ious	-11.7542
▁colour	-11.7545
▁Jazz	-11.7549
▁rudely	-11.7552
▁competitive	-11.7561
▁Principe	-11.7564
▁(20	-11.7565
▁booth	-11.7565
▁hamburgers	-11.7568
▁400	-11.7568
▁Hop	-11.757
high	-11.7571
▁Circle	-11.7574
▁Ponte	-11.7575
▁Therefore	-11.7582
▁National	-11.7582
▁Dr	-11.7583
mar	-11.7588
ning	-11.7589
▁Shops	-11.7589
▁scenic	-11.759
▁Mike	-11.7594
▁Oxford	-11.7595
ino	-11.7598
existent	-11.7599
everything	-11.7601
mini	-11.7603
▁trail	-11.7604
▁popcorn	-11.7606
▁urban	-11.7611
▁BEACH	-11.7617
▁blind	-11.7618
▁supermarkets	-11.7619
▁Recommended	-11.762
▁crappy	-11.7621
▁membership	-11.7622
▁impeccably	-11.7626
銈	-11.7632
▁replacing	-11.7637
▁electricity	-11.7637
▁WAY	-11.7638
▁guides	-11.7639
▁panoramic	-11.7642
▁installed	-11.7649
▁HOT	-11.765
▁buffett	-11.7652
ign	-11.7653
▁busses	-11.7655
ks	-11.7656
ical	-11.7658
▁Washington	-11.7658
▁significantly	-11.7662
▁climate	-11.7668
▁Tree	-11.7669
▁k	-11.7673
rated	-11.7677
▁cheesy	-11.7679
ial	-11.7681
▁grade	-11.7682
23	-11.7688
ay	-11.7694
▁amsterdam	-11.7695
▁dancers	-11.7695
▁tone	-11.7696
▁Tram	-11.7705
mb	-11.7714
▁(2)	-11.7714
▁wildlife	-11.7716
▁shaped	-11.7719
▁Kapalua	-11.7721
▁accessed	-11.7724
▁automatic	-11.7726
▁restaraunts	-11.7731
▁candles	-11.7733
▁Walmart	-11.7737
▁exist	-11.7742
▁shelves	-11.7743
▁someplace	-11.7747
▁irritating	-11.7747
equipped	-11.7748
▁float	-11.7751
▁Copley	-11.7753
14	-11.7755
▁beans	-11.7756
▁clue	-11.7758
▁Monica	-11.7763
▁sticky	-11.7764
▁lumpy	-11.7764
si	-11.7769
▁client	-11.7771
▁34	-11.7773
▁remarkable	-11.7774
▁searched	-11.7777
ded	-11.7777
28	-11.7777
▁Lido	-11.778
ard	-11.778
cu	-11.7781
▁community	-11.7785
▁shall	-11.7787
▁vibrant	-11.779
▁supper	-11.7791
▁smokey	-11.7796
▁deco	-11.78
▁Turtle	-11.78
▁horror	-11.7801
▁ending	-11.7806
▁billed	-11.7809
best	-11.7809
▁pharmacy	-11.7817
Would	-11.7817
▁Delta	-11.7817
▁hitting	-11.7819
▁coconut	-11.7825
▁flash	-11.7826
▁$22	-11.7832
▁ABC	-11.7834
▁attempts	-11.7835
▁intrusive	-11.7838
▁cubicle	-11.7843
▁bedbugs	-11.7845
www	-11.7846
▁Anyone	-11.785
▁playground	-11.7856
▁downhill	-11.7857
▁corrected	-11.7859
▁frustrated	-11.7859
▁alternatives	-11.7861
▁dozens	-11.7866
=	-11.7868
▁bid	-11.7868
▁venues	-11.7871
▁soundproofing	-11.7873
▁accomodated	-11.7873
ja	-11.7875
dinner	-11.7876
▁palapas	-11.7876
▁toys	-11.7877
▁wishing	-11.788
▁Luxembourg	-11.7881
▁disabled	-11.7891
▁Golf	-11.7892
price	-11.7893
▁remain	-11.7899
bu	-11.7902
▁Husband	-11.7907
▁Studio	-11.7912
▁(15	-11.7922
▁springs	-11.7922
▁venice	-11.7924
▁guided	-11.7927
▁Cruise	-11.7929
▁Murano	-11.7934
▁socks	-11.7936
▁bowling	-11.7938
▁grace	-11.7939
▁refill	-11.7941
▁$250	-11.7942
▁Da	-11.7943
▁sunbeds	-11.7944
▁Borghese	-11.7945
▁fits	-11.7946
▁sofas	-11.7947
▁Positives	-11.7949
▁dial	-11.7957
ative	-11.7958
▁latest	-11.7959
▁glazing	-11.7962
▁dorm	-11.7965
▁2:00	-11.797
▁Mi	-11.7976
▁downsides	-11.7977
▁1000	-11.7979
▁fax	-11.7979
▁motels	-11.7981
26	-11.7981
AL	-11.7982
▁EVERY	-11.7989
▁Superb	-11.7994
▁;)	-11.7996
▁sending	-11.7996
▁booze	-11.8
▁encourage	-11.8003
OR	-11.8009
.99	-11.8009
▁teh	-11.8014
▁Charlie	-11.8016
▁topped	-11.8019
ite	-11.8022
▁surprises	-11.8024
▁canals	-11.8025
▁2:30	-11.8027
▁sketchy	-11.8032
▁remainder	-11.8037
▁FANTASTIC	-11.8038
▁Mediterranean	-11.8038
▁2004.	-11.804
cor	-11.8043
▁Simply	-11.8043
▁Used	-11.8044
▁MO	-11.8051
▁po	-11.8052
▁Aladdin	-11.8054
▁bunk	-11.8055
special	-11.8056
▁worthy	-11.8056
▁oil	-11.8056
ger	-11.8071
ory	-11.8071
▁Barcelo	-11.8075
▁Rockefeller	-11.8076
▁Europeans	-11.8095
▁cloth	-11.8097
▁southern	-11.8098
▁FYI	-11.8098
▁BBC	-11.8099
vi	-11.81
▁Prado	-11.8103
▁grown	-11.8107
▁Luna	-11.8109
▁THe	-11.8115
never	-11.8119
▁bench	-11.812
▁blackjack	-11.813
bathroom	-11.8132
iest	-11.8141
▁2.5	-11.8145
▁smiled	-11.8145
▁hired	-11.8146
/11	-11.8152
minutes	-11.8153
▁que	-11.8153
▁film	-11.8159
▁tan	-11.8162
▁Ta	-11.8163
walking	-11.8165
▁Certainly	-11.8169
▁restaraunt	-11.8169
▁claims	-11.8172
Don	-11.8172
▁ID	-11.8174
▁BAD	-11.8175
▁kindness	-11.8176
21	-11.818
▁lo	-11.818
▁industrial	-11.818
▁kill	-11.8183
▁flawless	-11.8183
▁Asked	-11.8188
▁1:00	-11.819
▁cigarettes	-11.8191
▁Common	-11.8192
▁televisions	-11.8196
ions	-11.8196
▁comparing	-11.8197
▁latter	-11.8198
▁dropping	-11.8198
street	-11.8199
▁unforgettable	-11.8202
▁justice	-11.8202
then	-11.8207
▁Roof	-11.8208
▁pour	-11.821
▁renovating	-11.8213
▁dvd	-11.8213
▁growing	-11.8215
ky	-11.8218
▁Wedding	-11.8221
▁Pe	-11.8225
27	-11.8229
▁Eventually	-11.823
▁noisey	-11.8236
07	-11.8237
▁Steve	-11.8239
▁yrs	-11.8239
▁asian	-11.8239
▁1-	-11.8247
Location	-11.8247
stay	-11.8249
▁puts	-11.8253
)...	-11.8257
▁Such	-11.8259
▁$17	-11.8261
▁surfing	-11.8267
▁HI	-11.827
▁reviewed	-11.8272
▁researched	-11.828
▁Chancellor	-11.8286
▁ma	-11.8286
▁Far	-11.8292
▁Pub	-11.8292
▁20-30	-11.8293
▁Rick	-11.8296
▁demanded	-11.8296
▁intended	-11.8297
▁pleasent	-11.8298
did	-11.8298
▁unsure	-11.8303
uff	-11.8303
▁horse	-11.8306
▁jumping	-11.8306
▁Stratosphere	-11.8308
▁trays	-11.8309
▁Marie	-11.8312
▁ho	-11.8313
▁PERFECT	-11.8314
▁Yet	-11.8316
thank	-11.8317
▁rolled	-11.8318
▁Hopefully	-11.8319
▁mega	-11.832
fresh	-11.8326
included	-11.8327
▁meter	-11.8327
▁finger	-11.8328
▁sharp	-11.833
▁impress	-11.8332
▁dreadful	-11.8333
▁Card	-11.8335
▁lane	-11.834
▁res	-11.8345
▁speedy	-11.8347
▁Isla	-11.8348
family	-11.8348
ties	-11.8349
key	-11.835
▁ferries	-11.8353
▁1:30	-11.8353
▁Venezia	-11.8358
▁climbing	-11.8362
▁operated	-11.8362
▁sunshine	-11.8364
▁Shop	-11.8366
ep	-11.8367
▁cooling	-11.8367
▁rode	-11.8372
▁shirts	-11.8375
▁Music	-11.8377
▁Ho	-11.8379
▁march	-11.838
▁Occidental	-11.8381
▁Something	-11.8388
▁excellant	-11.8392
▁social	-11.8398
▁wee	-11.8398
▁IF	-11.84
▁wore	-11.8403
▁flag	-11.8405
▁receiving	-11.8409
▁hilton	-11.8409
ES	-11.841
▁twins	-11.8412
▁Tube	-11.8414
quiet	-11.8416
What	-11.8421
▁adequately	-11.8426
▁abundant	-11.8426
▁responsible	-11.8432
▁comforts	-11.8432
▁roller	-11.8437
▁cultural	-11.8438
09	-11.844
▁hint	-11.8447
ug	-11.8447
▁presence	-11.8449
▁test	-11.8449
▁covering	-11.8454
▁secured	-11.8456
▁crossing	-11.8459
▁harder	-11.846
stocked	-11.8461
ened	-11.8461
▁Elevators	-11.8461
▁Resorts	-11.8467
▁Shore	-11.8469
▁Fair	-11.8477
▁termini	-11.8477
▁scheme	-11.8483
▁Quinta	-11.8489
▁prove	-11.8489
▁tr	-11.849
▁paths	-11.8493
▁link	-11.8497
ini	-11.8499
▁burned	-11.8499
▁factory	-11.8504
▁Quick	-11.8506
▁economical	-11.8508
ask	-11.8513
ps	-11.8516
clock	-11.8522
▁mum	-11.8523
▁sunsets	-11.8524
▁engineer	-11.8526
▁insulation	-11.8529
▁Ice	-11.8534
▁Angel	-11.8534
▁Ala	-11.8534
▁cotton	-11.8535
qui	-11.8537
▁Nevertheless	-11.854
▁Read	-11.8545
▁arrogant	-11.8546
ries	-11.8549
▁jumped	-11.8549
▁Per	-11.855
kept	-11.855
▁distant	-11.8552
▁Fi	-11.8553
▁monkeys	-11.8561
head	-11.8563
▁efficiency	-11.8563
▁remodel	-11.8566
Re	-11.8567
▁guards	-11.8569
▁Theater	-11.857
▁brochure	-11.8572
▁partially	-11.8572
01	-11.8575
large	-11.8575
ily	-11.8577
▁Truly	-11.8592
▁fixing	-11.8595
▁pans	-11.8597
▁circumstances	-11.8606
NO	-11.8607
▁speakers	-11.8618
▁rewards	-11.8618
▁convinced	-11.8619
card	-11.862
ud	-11.8626
▁Carribean	-11.8632
▁Cirque	-11.8632
▁unpack	-11.8633
▁enjoyment	-11.8636
▁Aquarium	-11.8638
▁password	-11.8638
ys	-11.8639
▁bulbs	-11.8647
▁minimalist	-11.8648
▁teas	-11.8649
▁sophisticated	-11.865
cing	-11.865
▁locker	-11.8652
▁content	-11.8661
▁Neither	-11.8661
04	-11.8667
▁definetely	-11.8667
yr	-11.8669
▁definitly	-11.8673
▁NOLA	-11.8686
▁inconsistent	-11.869
▁chaos	-11.869
Be	-11.8696
much	-11.8697
▁passengers	-11.8704
▁sheer	-11.8708
▁human	-11.8711
low	-11.8712
▁20%	-11.8717
▁showered	-11.872
▁(8	-11.8722
speed	-11.8727
▁detergent	-11.8731
▁restroom	-11.8733
-4	-11.8733
▁ARE	-11.8733
▁bitten	-11.8736
▁equivalent	-11.8737
think	-11.8738
▁essential	-11.8745
rk	-11.875
▁cutting	-11.875
▁Peninsula	-11.8754
▁bakeries	-11.8755
▁repeated	-11.8755
ria	-11.876
▁evident	-11.8764
▁ver	-11.8765
▁apologies	-11.8766
▁Sadly	-11.8767
modern	-11.8767
▁Pa	-11.8768
ada	-11.8769
▁passports	-11.8769
▁Astoria	-11.8774
▁finishing	-11.8774
have	-11.8783
nes	-11.8783
▁hammocks	-11.8784
▁Around	-11.8793
▁Kensington	-11.8795
▁ya	-11.8799
Oh	-11.8801
▁festival	-11.8807
▁slowly	-11.8807
▁freshen	-11.881
▁celebrated	-11.8811
▁sewage	-11.8819
cal	-11.8825
▁considerably	-11.8826
▁Na	-11.8829
▁Millenium	-11.8831
▁pretentious	-11.8831
tro	-11.8832
▁bird	-11.8835
ple	-11.8837
▁Disneyland	-11.884
▁oversized	-11.8842
▁Guests	-11.8843
▁skipped	-11.8849
▁solve	-11.8856
▁wings	-11.8862
▁refilled	-11.8865
▁arguing	-11.8866
▁snorkelling	-11.8867
▁leisurely	-11.8868
▁tacos	-11.8868
▁characters	-11.8868
▁werent	-11.8869
▁12:30	-11.8873
▁improvements	-11.8873
▁Aloha	-11.8879
▁agents	-11.8881
▁inadequate	-11.8888
▁resulted	-11.8892
▁Should	-11.8896
▁Daniel	-11.8897
▁bagel	-11.8898
▁operation	-11.8911
▁ventured	-11.8912
▁Pi	-11.8913
▁brands	-11.8913
▁JFK	-11.8914
▁assistant	-11.8917
▁moments	-11.8918
▁favour	-11.8919
▁lawn	-11.8924
fully	-11.8928
▁Viva	-11.8928
▁stones	-11.8928
▁deciding	-11.8932
▁whales	-11.8932
▁product	-11.8952
06	-11.8953
▁maintain	-11.8957
euro	-11.8962
▁sweat	-11.8965
▁AI	-11.8971
▁Dirty	-11.8974
▁forest	-11.8977
▁porters	-11.8982
▁toothbrush	-11.8985
▁Cleanliness	-11.8986
den	-11.8987
▁listened	-11.8988
▁lifetime	-11.8988
▁pets	-11.8989
▁ROOMS	-11.8995
mer	-11.8999
▁annoyance	-11.9003
▁bistro	-11.9003
▁Eden	-11.9003
location	-11.9005
▁vacuumed	-11.9007
▁:(	-11.9014
99	-11.9015
▁omelettes	-11.902
▁strike	-11.9021
▁costly	-11.9021
▁insurance	-11.9021
▁splendid	-11.9021
▁TIP	-11.9023
▁heck	-11.9024
table	-11.9026
▁student	-11.9027
▁advertising	-11.9027
▁fifteen	-11.9027
▁luau	-11.9028
▁cockroaches	-11.9028
▁grey	-11.9028
▁ca	-11.9031
▁roughly	-11.9032
▁拢	-11.9034
▁Gras	-11.9036
▁seeking	-11.9041
▁ect	-11.9042
▁suffer	-11.9044
ual	-11.9044
▁CVS	-11.9045
▁success	-11.9049
▁Pass	-11.9051
ever	-11.9051
ette	-11.9055
ied	-11.9058
▁Inns	-11.9062
▁HAVE	-11.9063
▁showerhead	-11.9064
▁Q	-11.9068
bars	-11.9069
▁motor	-11.9069
▁resident	-11.907
▁nachos	-11.9072
▁efforts	-11.9078
▁Kind	-11.9081
▁Bank	-11.9082
called	-11.9086
▁Pay	-11.9087
▁SD	-11.909
▁True	-11.9091
▁departing	-11.9097
without	-11.9099
▁trap	-11.91
▁safely	-11.91
▁purse	-11.9101
_	-11.9101
▁creepy	-11.9101
LE	-11.9103
gra	-11.9105
conditioned	-11.9105
▁mouse	-11.9106
ph	-11.9108
ui	-11.9109
▁nonetheless	-11.9112
▁maze	-11.9112
Carlton	-11.9113
next	-11.9116
02	-11.9118
▁sections	-11.9118
▁Secondly	-11.9119
▁**	-11.9122
▁Bedroom	-11.9125
▁bo	-11.9127
▁Japan	-11.913
▁afternoons	-11.9135
▁colorful	-11.9137
▁ME	-11.9141
▁excitement	-11.9142
▁temperatures	-11.9144
▁Paid	-11.9144
▁insist	-11.9144
▁Down	-11.9146
cruise	-11.915
▁theatres	-11.9151
▁Veneto	-11.9155
▁Louis	-11.9158
▁shortage	-11.9164
▁spirit	-11.9168
▁roaches	-11.9174
▁Polo	-11.9175
▁Weekend	-11.9179
ho	-11.918
▁artwork	-11.918
▁si	-11.9182
▁nose	-11.9183
▁cockroach	-11.919
▁raise	-11.9191
▁Olympic	-11.9191
▁stiff	-11.9191
▁pineapple	-11.9191
▁remains	-11.9193
▁Fa	-11.9195
first	-11.9199
▁Going	-11.9201
▁jewelry	-11.921
▁rowdy	-11.921
▁chaise	-11.921
▁pulling	-11.9223
▁alive	-11.9225
▁sour	-11.9227
▁Amenities	-11.9228
▁worker	-11.923
su	-11.9234
▁Expensive	-11.924
://	-11.9243
▁Joe	-11.9244
/10	-11.9245
▁death	-11.9246
▁petals	-11.9246
▁sprayed	-11.9248
▁gated	-11.925
▁waterpark	-11.9253
▁gentlemen	-11.9254
▁Il	-11.9255
▁NH	-11.9258
▁rank	-11.9259
▁suddenly	-11.926
▁tape	-11.9262
▁lounger	-11.9266
gan	-11.9267
▁wary	-11.9268
ale	-11.9273
▁OC	-11.9274
▁SPA	-11.9275
▁Gracia	-11.9277
▁Choice	-11.9277
▁slice	-11.9277
▁Luxury	-11.9277
▁Labor	-11.929
perfect	-11.9291
▁premier	-11.9295
▁reserving	-11.9296
▁fro	-11.9299
▁omelette	-11.93
03	-11.9305
▁65	-11.9309
▁associated	-11.9312
▁comforters	-11.9314
▁babies	-11.932
▁HIGHLY	-11.932
▁Airlines	-11.9324
▁cave	-11.9324
▁retrieve	-11.9325
pped	-11.9328
▁haul	-11.9329
▁manicured	-11.933
▁ranging	-11.9331
▁device	-11.9335
▁OR	-11.9339
▁chip	-11.9339
▁honored	-11.934
▁forum	-11.934
▁packing	-11.9344
▁70'	-11.9345
▁souvenir	-11.9346
q	-11.9347
▁Average	-11.9358
▁balls	-11.9358
▁native	-11.9358
▁armoire	-11.9359
quality	-11.9361
▁Country	-11.937
▁flies	-11.937
drinks	-11.9372
▁Lobster	-11.9376
▁mi	-11.9381
▁Off	-11.9385
level	-11.9391
▁grout	-11.9392
▁Third	-11.9393
▁Way	-11.9396
▁Booking	-11.9397
▁toothpaste	-11.9401
▁Wouldn	-11.9412
▁Basic	-11.9412
▁ur	-11.9412
▁Grant	-11.9413
▁era	-11.9415
ocean	-11.9415
▁connects	-11.9418
▁te	-11.9419
▁com	-11.9421
▁damaged	-11.9421
▁Gorgeous	-11.9426
95	-11.9427
business	-11.9428
ang	-11.9428
▁honey	-11.9433
▁Store	-11.9433
▁YOUR	-11.9439
▁Aveda	-11.944
▁Diner	-11.9446
▁seek	-11.9449
▁grubby	-11.9451
▁slam	-11.9453
real	-11.9456
lan	-11.9457
▁tourism	-11.9459
▁repairs	-11.9463
▁valuable	-11.9466
ita	-11.9468
▁tiring	-11.947
▁Itza	-11.9472
▁refuse	-11.9476
van	-11.9478
▁appointment	-11.9479
▁rolling	-11.9482
▁BTW	-11.9483
▁wheel	-11.9485
▁honeymooners	-11.9486
▁Hooters	-11.9488
▁Columbus	-11.9489
▁Seems	-11.9495
▁STAFF	-11.9496
▁entertain	-11.9498
▁horrendous	-11.9499
▁sparse	-11.95
cold	-11.95
▁Palomar	-11.9502
▁caliber	-11.9502
▁80'	-11.9506
▁expansive	-11.9508
.5	-11.9509
eat	-11.951
▁Tried	-11.951
▁jack	-11.951
▁moderately	-11.9512
▁disappeared	-11.9522
▁Are	-11.9523
▁WONDERFUL	-11.9527
ville	-11.9527
▁needless	-11.9527
▁researching	-11.9528
▁golden	-11.9529
▁wa	-11.9532
▁yogurts	-11.9532
▁et	-11.9534
cha	-11.9534
▁Elysees	-11.9542
▁Either	-11.9546
▁NOTHING	-11.9546
▁glorious	-11.9546
vo	-11.955
▁Germany	-11.9551
▁Centraal	-11.9552
~	-11.9554
pro	-11.9558
▁Campo	-11.9567
▁plays	-11.9572
▁locks	-11.9572
▁mar	-11.9574
▁referred	-11.9578
▁enthusiastic	-11.9578
▁cabin	-11.958
▁wrapped	-11.9584
36	-11.9587
▁Breakfasts	-11.9589
▁anxious	-11.959
▁CN	-11.9592
▁ideas	-11.9598
▁Mayor	-11.9599
▁judge	-11.9602
▁Cost	-11.9603
▁boogie	-11.9603
Le	-11.9604
é	-11.9607
▁evidence	-11.9608
-8	-11.9609
▁thousands	-11.9611
▁struggled	-11.9612
▁arms	-11.9615
▁definatly	-11.9616
▁singapore	-11.9616
▁personalized	-11.9617
▁loop	-11.9619
pre	-11.962
▁terminals	-11.962
▁Ubud	-11.9622
▁communal	-11.9622
▁6)	-11.9627
—	-11.9635
ff	-11.9639
nce	-11.964
▁disagree	-11.9641
▁minded	-11.9644
▁Nord	-11.9644
▁graciously	-11.9644
euros	-11.9648
gi	-11.9653
thanks	-11.9654
wa	-11.9655
:)	-11.9657
▁file	-11.9662
ick	-11.9664
▁Tips	-11.9671
▁em	-11.9674
fe	-11.9674
▁winner	-11.9675
▁interaction	-11.9677
▁5-6	-11.9679
▁boot	-11.9685
▁NYNY	-11.9686
▁Expect	-11.9689
▁Services	-11.9691
▁ping	-11.9692
▁Dutch	-11.9693
▁driven	-11.9704
▁neighborhoods	-11.9705
▁UN	-11.9706
▁facial	-11.971
▁Frankfurt	-11.9712
▁strength	-11.9712
▁turkish	-11.9712
▁frosted	-11.9712
▁stepping	-11.9713
▁switches	-11.9717
▁Queens	-11.972
date	-11.9721
▁maximum	-11.9725
▁Aya	-11.9726
▁Give	-11.9726
▁Harrahs	-11.9734
▁ju	-11.9735
▁functioning	-11.974
▁salon	-11.9745
猫	-11.9746
▁$28	-11.9746
Yes	-11.975
▁fortunately	-11.975
▁Came	-11.9751
▁satisfy	-11.9759
▁Cable	-11.9763
▁07	-11.9765
▁coffeemaker	-11.9766
door	-11.9769
▁vacuum	-11.9769
▁usage	-11.977
▁Furthermore	-11.977
now	-11.977
▁critical	-11.9777
Co	-11.978
▁kiosk	-11.9781
▁deserved	-11.9784
green	-11.9787
▁aggressive	-11.9787
▁accordingly	-11.9788
>	-11.9788
▁Whenever	-11.9795
▁poster	-11.9795
▁picnic	-11.9796
▁folded	-11.9802
▁Half	-11.9803
▁denied	-11.9809
▁disapointed	-11.9809
▁entrees	-11.981
Service	-11.9811
▁rust	-11.9812
ged	-11.9813
ew	-11.982
▁eco	-11.982
▁mugs	-11.9827
always	-11.983
▁soundproof	-11.9834
▁Champagne	-11.9842
early	-11.9843
ball	-11.9848
▁merely	-11.9851
▁inquire	-11.9854
Ma	-11.9858
▁Atlantic	-11.986
▁locally	-11.9861
▁7-11	-11.9864
iv	-11.9864
▁1-2	-11.9867
▁Inside	-11.9868
▁Field	-11.9868
▁powder	-11.9868
▁bin	-11.9868
▁pity	-11.9874
▁chest	-11.9875
33	-11.9876
since	-11.9883
▁CONS	-11.9884
▁Catherine	-11.9888
He	-11.9889
▁Su	-11.9891
▁proud	-11.9892
▁region	-11.9892
▁kicked	-11.9894
▁Definately	-11.9894
34	-11.9895
bit	-11.9895
▁fighting	-11.9896
▁ski	-11.9899
▁Arizona	-11.99
▁accustomed	-11.99
easy	-11.9901
▁palapa	-11.9906
▁cafeteria	-11.9908
ving	-11.9909
▁refreshed	-11.991
▁drawbacks	-11.9913
uk	-11.9914
▁mass	-11.9917
▁jewel	-11.9917
▁makers	-11.992
▁silent	-11.992
▁4.5	-11.9923
▁herself	-11.9929
▁fri	-11.9931
▁upside	-11.9937
ide	-11.9939
▁romance	-11.994
▁compliment	-11.9941
▁awakened	-11.9942
▁witnessed	-11.9942
After	-11.9942
▁Sa	-11.9944
ona	-11.9944
▁busiest	-11.9945
▁platform	-11.9946
work	-11.9948
under	-11.9953
▁Orbitz	-11.9953
▁glance	-11.9953
22	-11.9956
▁quad	-11.996
▁imagined	-11.9961
▁Mom	-11.9964
▁loves	-11.9965
ron	-11.9965
▁experiencing	-11.9966
▁pp	-11.9971
▁clogged	-11.9973
▁breaking	-11.9977
▁Tuscany	-11.9981
ney	-11.9982
▁customs	-11.9983
▁satisfying	-11.9984
▁ne	-11.9987
▁digital	-11.9989
▁suprise	-11.9992
▁handicap	-11.9999
▁stalls	-12.0003
▁wineries	-12.0008
▁alcoholic	-12.001
almost	-12.0011
▁thankful	-12.0014
▁kitchens	-12.0015
▁Except	-12.0017
▁Normally	-12.002
▁Seaport	-12.002
▁sixth	-12.0021
▁Shores	-12.0022
art	-12.0024
▁sunday	-12.0025
▁Swimming	-12.0026
▁laptops	-12.0027
▁Left	-12.0027
▁bellboy	-12.0032
▁soaked	-12.0033
▁huts	-12.0034
85	-12.0036
▁lemon	-12.0039
▁truely	-12.0041
▁$$$	-12.0051
▁Soleil	-12.0053
ther	-12.0053
▁stream	-12.0056
▁exotic	-12.0059
▁Familia	-12.0059
▁acknowledge	-12.0065
▁fail	-12.0066
▁mere	-12.0067
Go	-12.0073
TS	-12.0075
▁spoilt	-12.0079
▁divine	-12.0079
▁Toilet	-12.0079
▁hopping	-12.008
▁counters	-12.0081
▁08	-12.0082
▁McDonald	-12.0085
▁RE	-12.0091
▁savings	-12.0092
▁AGAIN	-12.0093
▁seemingly	-12.0094
/2	-12.0096
ub	-12.01
▁ac	-12.0101
▁privileges	-12.0105
▁$90	-12.0106
▁weary	-12.0108
ez	-12.0112
station	-12.0115
▁union	-12.0117
▁holder	-12.0118
▁potato	-12.0119
▁Fifth	-12.0119
▁allergies	-12.0119
▁gonna	-12.012
▁theaters	-12.0123
part	-12.0126
▁hammock	-12.0126
▁patience	-12.0126
▁10.30	-12.013
▁Mardi	-12.0131
▁Friends	-12.0131
▁negotiate	-12.0132
▁circus	-12.0134
▁stroller	-12.0135
▁answers	-12.0138
Pool	-12.0141
▁Fri	-12.0145
tter	-12.0148
▁reflect	-12.015
▁homemade	-12.0152
▁Paradisus	-12.0153
▁shout	-12.0153
32	-12.016
▁appalling	-12.016
ab	-12.0164
▁volcano	-12.0166
chi	-12.017
strip	-12.0172
▁material	-12.0173
▁senior	-12.0174
▁helpfulness	-12.0179
▁bldg	-12.018
▁losing	-12.0181
-1	-12.0184
▁prob	-12.0187
▁hat	-12.0188
▁Rewards	-12.019
▁hostels	-12.0191
ches	-12.0191
▁Chichen	-12.02
▁quarters	-12.0203
▁mineral	-12.0208
▁splash	-12.0212
▁Texas	-12.0214
▁lied	-12.0219
USD	-12.0223
▁questioned	-12.0225
▁cloud	-12.0226
▁$120	-12.0231
▁chaotic	-12.0234
▁affected	-12.0234
▁$5.00	-12.0235
▁headboard	-12.0237
▁deserted	-12.0241
▁bumped	-12.0243
▁gates	-12.0248
▁den	-12.025
▁Buy	-12.0252
▁sincere	-12.0252
▁GPS	-12.0255
▁Totally	-12.0257
▁Palmer	-12.0257
casino	-12.0257
▁pushing	-12.0258
buffet	-12.0263
▁painless	-12.0265
gar	-12.0273
▁Sagrada	-12.0275
▁intersection	-12.0275
▁United	-12.0277
▁Whatever	-12.0284
▁décor	-12.0289
dis	-12.0289
still	-12.0291
lic	-12.0294
▁MY	-12.0297
▁pouring	-12.03
▁restored	-12.0303
▁Publix	-12.0309
▁japanese	-12.0309
▁burnt	-12.0315
ement	-12.0316
▁Wal	-12.0318
▁Jo	-12.032
▁110	-12.0322
▁10-	-12.0327
▁fabric	-12.0333
▁joint	-12.0333
▁Millennium	-12.0336
▁vodka	-12.0336
▁displayed	-12.0336
ns	-12.0336
▁radiator	-12.0338
lobby	-12.034
used	-12.0345
▁parade	-12.0347
ki	-12.0347
▁universal	-12.0348
▁circle	-12.0351
▁individuals	-12.0353
▁Ideal	-12.0354
▁drab	-12.0358
hand	-12.036
▁Liberty	-12.0371
shopping	-12.0371
▁rundown	-12.0371
▁rug	-12.0371
▁seasons	-12.0372
▁Seven	-12.0377
▁cushions	-12.0379
-15	-12.0381
▁sucks	-12.0386
▁shell	-12.039
turn	-12.039
▁dispenser	-12.0393
▁oldest	-12.0395
ran	-12.0402
▁tiki	-12.0406
open	-12.0407
▁sizes	-12.0409
▁Outstanding	-12.0412
▁assure	-12.0413
were	-12.0414
od	-12.0415
▁daylight	-12.0418
▁Plan	-12.0419
▁Patrick	-12.0419
▁waitstaff	-12.0419
▁falls	-12.0425
????	-12.0428
▁wonderfull	-12.0431
▁Festival	-12.0433
▁magazines	-12.0434
▁Century	-12.044
▁Priority	-12.044
ked	-12.0442
ong	-12.0442
▁messed	-12.0445
▁backed	-12.0446
▁catamaran	-12.0449
▁refer	-12.045
▁frustration	-12.0454
▁Kudos	-12.0454
▁possibility	-12.0461
▁source	-12.0461
St	-12.0461
▁Prior	-12.0461
via	-12.0465
tu	-12.0468
▁ve	-12.0468
▁tracks	-12.0472
could	-12.0475
▁120	-12.0476
same	-12.0479
dining	-12.0479
▁Up	-12.0481
▁costing	-12.0481
▁challenging	-12.0481
▁adjusted	-12.0482
order	-12.0482
▁butts	-12.0484
ica	-12.0485
▁cigar	-12.0491
▁produce	-12.0495
▁Moana	-12.0496
▁sleepers	-12.0496
ren	-12.0497
▁Pleasant	-12.05
▁Ti	-12.0501
place	-12.0503
des	-12.0504
▁Situated	-12.0509
ow	-12.0511
▁eg	-12.0512
▁reunion	-12.0516
▁soothing	-12.0516
▁[--]	-12.0517
▁tissue	-12.0519
39	-12.0522
▁busier	-12.0523
▁Wilderness	-12.0523
▁Kai	-12.0525
▁crying	-12.0526
▁ringing	-12.0528
pping	-12.053
▁(1)	-12.0533
▁force	-12.0535
▁Group	-12.0536
▁user	-12.0542
▁Lane	-12.0542
rt	-12.0546
▁sharks	-12.0549
▁task	-12.055
lie	-12.055
han	-12.055
▁Pre	-12.0551
▁Floridian	-12.0551
▁stellar	-12.0551
▁pointing	-12.0552
▁lame	-12.0556
▁departed	-12.0562
▁Library	-12.0565
season	-12.0566
▁Cosmo	-12.0566
▁Wife	-12.0566
▁tends	-12.0567
▁ensured	-12.0568
ile	-12.057
▁lug	-12.0571
▁newest	-12.0572
▁Arts	-12.0573
▁diners	-12.0574
ai	-12.0578
upgraded	-12.058
gh	-12.058
gg	-12.0582
▁Lenox	-12.0586
MA	-12.0588
▁bathrobe	-12.059
!!!)	-12.0591
▁accompanied	-12.0594
▁En	-12.0596
▁nearer	-12.0599
▁Platz	-12.0601
▁tender	-12.0602
oo	-12.0606
▁boutiques	-12.0607
▁$24	-12.0608
▁glazed	-12.0609
▁appointments	-12.0612
ST	-12.0614
▁saturday	-12.0615
▁$99	-12.0617
▁halfway	-12.0617
▁Summer	-12.0618
▁driveway	-12.0619
▁Basilica	-12.0622
tain	-12.0623
▁Rep	-12.0626
▁blackout	-12.0627
▁awsome	-12.0629
▁Corona	-12.0629
once	-12.0629
▁5-7	-12.0629
▁Tony	-12.063
▁handling	-12.0633
▁Travelocity	-12.0636
▁mode	-12.0636
lin	-12.0638
▁flushing	-12.0638
▁Hour	-12.0639
▁Arriving	-12.0643
ola	-12.0643
▁flood	-12.0649
▁cast	-12.0651
▁picturesque	-12.0652
▁gratuity	-12.0657
▁technology	-12.0657
▁crammed	-12.0657
▁bend	-12.0657
▁paperwork	-12.0658
▁bowls	-12.066
▁bulb	-12.066
▁sake	-12.0665
-30	-12.067
▁ALWAYS	-12.0671
▁causing	-12.0671
▁custom	-12.0672
▁kiddie	-12.0675
rise	-12.0675
▁canceled	-12.0676
▁emptied	-12.0678
▁Forget	-12.0686
▁suggesting	-12.0686
ens	-12.0688
▁treadmill	-12.0689
▁mexico	-12.0692
▁corn	-12.0693
▁shorts	-12.0693
read	-12.0694
ets	-12.0695
dge	-12.0695
▁beats	-12.0696
▁Ba	-12.0698
▁horribly	-12.0699
▁silverware	-12.07
▁41	-12.07
▁winding	-12.0701
▁smoker	-12.0701
▁apply	-12.0705
▁shares	-12.0707
▁behavior	-12.0707
fo	-12.0712
ko	-12.0712
▁Che	-12.0713
EL	-12.0714
▁Ambassador	-12.0721
▁Bars	-12.0723
ure	-12.0723
▁collected	-12.0728
▁reaction	-12.0736
▁.....	-12.074
▁conferences	-12.0741
▁midst	-12.0744
sed	-12.0744
▁messages	-12.0753
▁snorkling	-12.0757
▁slipped	-12.0757
")	-12.0759
▁mod	-12.0763
▁vehicles	-12.0765
tly	-12.0765
TV	-12.0767
▁plunge	-12.0768
tle	-12.0772
▁yoghurts	-12.0773
▁Les	-12.0777
▁hopes	-12.0781
market	-12.0783
▁app	-12.0794
▁flu	-12.0794
▁buzzing	-12.0798
▁Bu	-12.0798
▁incl	-12.0801
▁considerate	-12.0805
▁Marmara	-12.0807
.........	-12.0809
▁fat	-12.0809
However	-12.0809
ara	-12.0811
▁£1	-12.0811
jo	-12.0813
▁http	-12.0815
▁Coming	-12.0816
fer	-12.0817
▁slices	-12.082
wi	-12.0821
▁Others	-12.0822
bi	-12.0827
▁margaritas	-12.0828
▁bent	-12.083
▁recognize	-12.083
▁38	-12.0842
▁sooner	-12.0844
▁essentials	-12.0845
▁earned	-12.0847
▁zip	-12.0856
▁Te	-12.0857
▁saves	-12.0864
▁Jamaica	-12.0864
▁annex	-12.087
ade	-12.0871
▁sweets	-12.0873
beautiful	-12.0874
▁separately	-12.0875
▁President	-12.0877
▁edible	-12.0879
▁pina	-12.088
▁stressful	-12.0886
▁versus	-12.0886
trip	-12.0887
▁national	-12.0888
main	-12.0894
▁Concha	-12.0898
▁loyalty	-12.0901
▁studios	-12.0901
▁neighbouring	-12.0903
▁partly	-12.0907
▁Sleep	-12.0908
▁relatives	-12.091
ero	-12.091
▁cord	-12.0914
▁washcloths	-12.092
▁LOL	-12.0921
▁obtain	-12.0922
▁Quincy	-12.0923
▁Coronado	-12.0923
▁residence	-12.0927
▁gentle	-12.0928
ware	-12.0932
toilet	-12.0932
................	-12.0933
▁largely	-12.0936
▁generic	-12.0937
▁Royale	-12.0942
▁inspection	-12.0945
every	-12.0951
▁Tom	-12.0957
▁Cannot	-12.0963
▁Mama	-12.0968
▁Dreams	-12.097
▁suffered	-12.0971
▁continues	-12.0973
▁Calistoga	-12.0973
▁galleries	-12.0973
▁Horrible	-12.0974
nk	-12.0975
▁extrem	-12.0975
▁Martin	-12.0978
▁ramp	-12.0978
▁Ga	-12.0979
▁responsibility	-12.0981
▁Alcatraz	-12.0981
▁incorrect	-12.0984
▁upmarket	-12.0984
▁Liked	-12.0986
▁Langham	-12.0988
That	-12.0991
▁Walls	-12.0993
anapali	-12.0995
▁barcelona	-12.0995
-11	-12.0997
▁weddings	-12.0998
ach	-12.0999
38	-12.1003
▁seasoned	-12.1004
▁coffees	-12.1004
▁Preferred	-12.101
rie	-12.1012
▁pen	-12.1012
69	-12.1013
▁Local	-12.1013
hard	-12.1016
▁TINY	-12.1017
▁accidentally	-12.1018
▁delays	-12.1018
▁Parrot	-12.1025
▁increase	-12.1025
▁horseback	-12.1025
▁loss	-12.1025
At	-12.1026
▁fairness	-12.103
Q	-12.103
▁respectful	-12.1033
▁na	-12.1033
ose	-12.1037
▁liquid	-12.1039
▁reference	-12.1047
▁Whole	-12.1049
▁Eurostar	-12.1051
▁sing	-12.1051
▁Allegro	-12.1054
▁Boy	-12.106
▁opportunities	-12.1061
▁cloudy	-12.1064
▁storing	-12.1069
▁shaft	-12.1069
▁disgusted	-12.1077
better	-12.1079
▁cameras	-12.1079
▁feelings	-12.1081
-7	-12.1083
▁earn	-12.1083
▁mandatory	-12.1084
▁Med	-12.1086
set	-12.109
▁Monorail	-12.1091
▁handful	-12.1092
Just	-12.1094
▁niece	-12.1098
▁nites	-12.1099
▁Think	-12.1102
▁WI	-12.1103
▁rec	-12.1105
▁rainforest	-12.1106
▁acknowledged	-12.1106
phone	-12.1107
▁pound	-12.1115
wow	-12.1118
▁800	-12.1119
▁papers	-12.112
▁entree	-12.112
▁Biltmore	-12.1121
▁Rather	-12.1121
ments	-12.1121
▁drunken	-12.1124
ag	-12.1129
▁YES	-12.1132
▁Montparnasse	-12.1136
▁Gu	-12.1144
oli	-12.1145
▁($1	-12.1145
▁treasure	-12.1149
▁pin	-12.115
▁THERE	-12.1151
▁pathetic	-12.1151
▁retro	-12.1152
zi	-12.1158
49	-12.1165
▁marathon	-12.1165
▁fool	-12.117
▁discussion	-12.1172
▁Outrigger	-12.1173
▁PDC	-12.1173
▁Fenway	-12.1173
through	-12.1173
▁grumpy	-12.1173
▁dissappointed	-12.1173
▁Cler	-12.1173
▁faded	-12.1174
▁glowing	-12.1174
▁makeover	-12.1175
▁weekdays	-12.1177
▁routine	-12.1178
▁carmen	-12.1178
▁id	-12.1179
▁lukewarm	-12.118
und	-12.1182
ico	-12.1182
▁Underground	-12.1188
▁gelato	-12.1188
qu	-12.1188
▁shots	-12.1189
▁subject	-12.1189
▁proofing	-12.1189
▁safer	-12.1191
▁pirate	-12.1195
▁gain	-12.1198
▁Springs	-12.1198
▁Met	-12.1202
▁ongoing	-12.1206
▁matched	-12.1208
▁Believe	-12.121
▁Brilliant	-12.121
fa	-12.1211
▁soccer	-12.1218
▁Trust	-12.1218
▁Initially	-12.1218
izing	-12.1219
▁designated	-12.1219
▁field	-12.1221
▁cousin	-12.1226
▁(11	-12.1226
▁Cuba	-12.1228
CE	-12.1229
▁theft	-12.1232
37	-12.1234
ik	-12.1236
▁Gala	-12.1237
▁Victor	-12.1239
▁Bon	-12.1239
▁stench	-12.124
▁landscape	-12.124
▁gondola	-12.1247
▁prison	-12.1248
▁vents	-12.1251
▁flexible	-12.1255
▁questionable	-12.1259
▁mask	-12.1262
▁Floridays	-12.1263
▁plugged	-12.1263
▁layover	-12.1264
▁threatened	-12.1271
▁shampoos	-12.1275
▁ethernet	-12.1278
▁dryers	-12.1283
▁72	-12.1284
▁unnecessary	-12.1285
▁amounts	-12.1286
ters	-12.129
tan	-12.1293
▁Views	-12.1294
ani	-12.1296
▁shorter	-12.1296
▁wound	-12.1298
▁cats	-12.1299
/12	-12.13
tal	-12.13
▁̃	-12.13
▁occurred	-12.13
▁mon	-12.13
▁wanna	-12.1301
▁sp	-12.1301
▁ra	-12.1302
▁PROS	-12.1302
▁eaters	-12.1304
▁discuss	-12.1307
▁Oscar	-12.1308
▁freezer	-12.1314
▁(9	-12.1315
▁Bugis	-12.1315
▁retail	-12.1316
▁winning	-12.1316
▁pullout	-12.1318
▁physical	-12.132
▁09	-12.1324
▁Ar	-12.133
▁performance	-12.1331
▁buttons	-12.1335
▁sur	-12.1335
IT	-12.1337
▁cathedral	-12.1338
▁Alexanderplatz	-12.1338
▁Boutique	-12.1338
▁Luau	-12.1338
▁Lion	-12.1343
▁professionally	-12.1345
▁satellite	-12.1346
▁unavailable	-12.1353
comfortable	-12.1355
▁tab	-12.1355
▁guessing	-12.1356
despite	-12.1356
▁compensated	-12.1357
ix	-12.1358
TMre	-12.1365
▁Brazilian	-12.1368
ging	-12.1372
▁mud	-12.1372
▁justify	-12.1372
▁CDG	-12.1376
▁overheard	-12.1379
late	-12.1381
▁whereas	-12.1381
▁Nob	-12.1386
ism	-12.1387
▁Australian	-12.1389
▁affair	-12.1391
▁RCI	-12.1393
▁indoors	-12.1397
▁demanding	-12.1398
▁operating	-12.1399
je	-12.14
▁Ex	-12.1405
▁blocking	-12.1405
▁Drake	-12.1406
why	-12.141
▁tournament	-12.1415
mart	-12.1416
▁coin	-12.1418
▁Zero	-12.1419
▁;-)	-12.1422
rest	-12.1426
▁systems	-12.1427
▁leftovers	-12.1428
bell	-12.1429
▁christmas	-12.1429
▁greasy	-12.1429
▁Premium	-12.143
▁differently	-12.143
44	-12.1432
▁Add	-12.1436
▁moon	-12.1444
▁Hurricane	-12.1445
▁barman	-12.1446
▁throwing	-12.1451
▁matress	-12.1451
▁Granville	-12.1453
▁streetcar	-12.1454
▁relations	-12.1455
▁stereo	-12.1464
▁cottages	-12.1464
▁moan	-12.1467
▁bizarre	-12.1468
▁Fairfield	-12.1468
▁quote	-12.1468
▁paintings	-12.1469
▁bothering	-12.1471
▁POOL	-12.1474
▁continually	-12.1476
▁pipe	-12.1492
ess	-12.1492
▁obliging	-12.1498
▁Miguel	-12.1499
▁Catalonia	-12.1506
▁considerable	-12.1508
▁pr	-12.1508
▁steel	-12.1514
31	-12.1516
▁apt	-12.1517
ole	-12.1517
drink	-12.1522
▁Prudential	-12.1529
days	-12.1535
▁repetitive	-12.1537
▁boss	-12.1539
▁freak	-12.1544
hotels	-12.1545
▁Mc	-12.1547
▁refurb	-12.1548
▁assisting	-12.155
▁reluctant	-12.155
▁Grove	-12.1555
▁lavish	-12.1558
box	-12.1559
▁Lincoln	-12.156
▁Coba	-12.1561
▁docking	-12.1561
▁friday	-12.1562
▁hamburger	-12.1562
▁airplane	-12.1563
42	-12.1568
▁temporary	-12.1568
▁Ve	-12.157
▁BR	-12.1572
▁!!!!	-12.158
▁batteries	-12.1584
py	-12.1587
▁Play	-12.1588
▁vacationing	-12.1595
▁Call	-12.1599
▁circular	-12.1599
▁pe	-12.1603
etto	-12.1605
▁bananas	-12.1607
▁Part	-12.161
▁soul	-12.1614
ack	-12.1614
▁becoming	-12.1616
▁pong	-12.1617
▁sailing	-12.1619
▁mug	-12.1621
▁sewer	-12.1622
/5	-12.1627
many	-12.1633
▁image	-12.1636
▁touristic	-12.1639
▁dire	-12.1639
▁helicopter	-12.164
▁Thought	-12.1651
▁Bel	-12.1652
▁creative	-12.1654
▁contrary	-12.1654
▁Need	-12.1655
▁entitled	-12.1663
▁flushed	-12.1664
▁Saw	-12.1664
▁85	-12.1666
▁Tiny	-12.167
▁roaming	-12.1672
▁platter	-12.168
▁37	-12.1682
▁understated	-12.1685
▁admission	-12.1685
▁dripping	-12.1685
▁ppl	-12.1685
▁signage	-12.1691
▁gravy	-12.1693
▁Gallery	-12.1693
▁unpacked	-12.1698
▁pluses	-12.1699
▁posters	-12.1699
▁Imagine	-12.1701
▁necessities	-12.1701
▁Trolley	-12.1701
▁Coke	-12.1702
▁similarly	-12.1703
▁soo	-12.1707
▁Live	-12.1709
▁compelled	-12.1716
▁fascinating	-12.1716
▁coordinator	-12.1716
▁thoughts	-12.1718
mal	-12.1729
▁Boat	-12.1729
▁series	-12.1733
▁billing	-12.1738
89	-12.1739
▁Property	-12.174
▁materials	-12.1748
▁Indianapolis	-12.1748
▁Jersey	-12.1748
▁Marais	-12.1748
▁WDW	-12.1749
▁nightstand	-12.175
▁EXTREMELY	-12.1756
▁ti	-12.1758
▁Dolphin	-12.1759
▁explored	-12.176
▁Ne	-12.176
▁Moon	-12.1762
▁excellence	-12.1764
om	-12.1766
▁steer	-12.1768
▁shocking	-12.177
▁(12	-12.177
▁Between	-12.1772
▁Sushi	-12.1772
▁session	-12.1775
era	-12.1777
▁unclean	-12.1779
tes	-12.1779
▁assuming	-12.178
▁bride	-12.1781
expensive	-12.1783
ung	-12.1787
▁mobility	-12.1788
▁Sultan	-12.1788
▁Guess	-12.1788
rry	-12.1789
will	-12.1793
▁contract	-12.1799
Well	-12.1803
▁lengthy	-12.1804
▁comps	-12.1808
79	-12.1808
▁lag	-12.1809
▁charger	-12.1811
▁hollywood	-12.1811
▁rectified	-12.1811
▁conveniences	-12.1818
▁purchasing	-12.1819
self	-12.1823
▁bits	-12.1823
▁struck	-12.1827
▁dare	-12.1829
▁Open	-12.183
ight	-12.1831
▁model	-12.1831
▁planet	-12.1832
yo	-12.1833
▁rubber	-12.1833
▁allergic	-12.1835
▁Comfy	-12.1835
▁Throughout	-12.1836
▁project	-12.1836
▁Less	-12.1839
your	-12.1839
tte	-12.184
48	-12.1841
▁rusty	-12.1846
▁Carpet	-12.1847
-12	-12.1847
cheap	-12.1849
▁craziness	-12.1851
▁fraction	-12.1851
▁hiking	-12.1851
▁fond	-12.1855
▁Total	-12.186
77	-12.1863
▁pregnant	-12.1867
living	-12.1871
▁Drink	-12.1871
▁www	-12.1872
▁Tapas	-12.1876
▁slower	-12.1877
must	-12.1879
bad	-12.1881
▁paddle	-12.1883
▁businesses	-12.1887
▁poured	-12.1889
▁raw	-12.1895
▁WHAT	-12.19
▁Windows	-12.19
sen	-12.1905
range	-12.1907
▁tow	-12.1909
-6	-12.191
pen	-12.1912
travel	-12.1913
▁Brown	-12.1915
▁PLEASE	-12.1916
▁pizzas	-12.1916
▁Jack	-12.1918
▁7.30	-12.1918
▁rudeness	-12.1918
▁martini	-12.1919
▁surround	-12.1919
br	-12.1922
▁echo	-12.1923
▁micro	-12.1924
cy	-12.1926
az	-12.1928
▁flea	-12.1929
▁debit	-12.1929
eo	-12.1936
quite	-12.194
▁detract	-12.1946
Some	-12.1948
▁countless	-12.1949
actually	-12.1949
▁banquet	-12.1955
▁turquoise	-12.1955
▁Self	-12.1957
cool	-12.1959
▁sticking	-12.1961
▁crepes	-12.1962
▁utilize	-12.1964
▁Nick	-12.197
▁infant	-12.1972
▁Extra	-12.1975
ip	-12.1977
▁Church	-12.198
▁Eat	-12.1982
▁filet	-12.1984
▁gigantic	-12.1988
▁scattered	-12.1988
▁expressed	-12.1989
▁rue	-12.1989
note	-12.1996
▁swift	-12.2001
zz	-12.2003
▁rings	-12.2006
▁shoulders	-12.201
▁hooked	-12.201
▁delivers	-12.2011
LL	-12.2012
▁desirable	-12.2012
▁extent	-12.2012
▁relieved	-12.2013
▁learning	-12.2014
▁quit	-12.2017
▁reward	-12.2018
deluxe	-12.2023
▁bon	-12.2024
▁flooring	-12.2025
▁grills	-12.2027
▁shaving	-12.2029
De	-12.2029
▁Pearl	-12.2031
▁joining	-12.2034
▁Bambu	-12.2036
▁rib	-12.2038
▁impact	-12.2041
#	-12.2043
▁teen	-12.2043
▁drawn	-12.2046
▁Chateau	-12.2046
▁44	-12.205
▁Luis	-12.205
▁Facilities	-12.2053
▁quay	-12.2053
got	-12.2055
▁Chi	-12.2056
TH	-12.2057
fish	-12.2057
▁knees	-12.206
▁roach	-12.2061
▁Transportation	-12.2061
▁SGD	-12.2062
▁Ci	-12.2065
another	-12.2065
▁surpassed	-12.2069
EN	-12.2073
▁insects	-12.2084
mid	-12.2085
pan	-12.2086
▁istanbul	-12.2087
ral	-12.2093
▁FS	-12.2096
▁attract	-12.2096
▁audience	-12.2102
▁$10.00	-12.2103
▁lamb	-12.2104
▁Cool	-12.2105
▁sl	-12.2108
▁Excelsior	-12.211
▁thirty	-12.211
▁Galleria	-12.211
▁timing	-12.211
▁Mother	-12.2111
▁DID	-12.2115
▁LOUD	-12.2118
▁Lexington	-12.2118
▁songs	-12.2118
▁register	-12.2119
▁partake	-12.2121
▁airlines	-12.2123
▁iced	-12.2123
▁tin	-12.2125
▁surcharge	-12.2126
▁screened	-12.2131
▁lobbies	-12.2134
▁meets	-12.2134
▁ta	-12.2134
bb	-12.2135
▁Dollar	-12.214
▁Living	-12.2143
▁Daily	-12.2143
2)	-12.2149
▁fa	-12.2159
▁Anything	-12.2159
▁muffin	-12.2164
£	-12.2166
/08	-12.2167
▁Conference	-12.2167
hours	-12.2169
▁Gi	-12.217
FI	-12.2172
▁castle	-12.2172
ou	-12.2172
▁furthest	-12.2175
▁refridgerator	-12.2175
▁Safeway	-12.2176
▁sore	-12.2178
Italian	-12.2179
▁relation	-12.2181
helpful	-12.2186
▁chefs	-12.2187
▁cove	-12.2189
▁killed	-12.2189
▁louder	-12.2193
▁Whether	-12.2195
▁Jean	-12.2197
▁banks	-12.2207
▁complicated	-12.2208
▁Morning	-12.2208
▁honesty	-12.2212
▁ducks	-12.2215
▁results	-12.2221
▁Cat	-12.2221
▁ingredients	-12.2222
▁mu	-12.2226
▁Harry	-12.2226
Thank	-12.2226
concierge	-12.2229
bs	-12.223
OK	-12.223
▁06	-12.223
▁HORRIBLE	-12.2233
▁recommed	-12.2233
▁Tourist	-12.2236
▁Cha	-12.2237
▁stressed	-12.2238
▁Thomas	-12.2242
▁Kuta	-12.2242
▁curious	-12.2244
▁duvets	-12.2246
▁kayaks	-12.2249
▁nuisance	-12.225
▁husbands	-12.2253
▁gathering	-12.2254
▁wandered	-12.2259
▁settings	-12.226
kids	-12.2261
▁freshener	-12.2266
▁Hancock	-12.2266
boutique	-12.2271
average	-12.2279
/07	-12.2279
gy	-12.2282
▁Heathrow	-12.2283
▁offices	-12.2288
due	-12.2289
▁yo	-12.2292
Only	-12.2292
▁holds	-12.2294
▁insult	-12.2298
▁defintely	-12.23
▁cracks	-12.2302
▁#3	-12.2305
▁250	-12.2307
▁Napili	-12.2308
▁Sir	-12.231
▁sa	-12.2311
▁Mario	-12.2312
New	-12.2313
▁Fast	-12.2313
▁independent	-12.2314
▁extension	-12.2316
▁recognized	-12.2317
53	-12.2323
▁Z	-12.2324
▁score	-12.2326
▁taps	-12.2327
their	-12.233
▁Beacon	-12.2333
▁Puerta	-12.2333
▁definatley	-12.2333
▁dawn	-12.2333
▁sisters	-12.2336
▁portable	-12.2336
▁strolling	-12.2339
▁Dana	-12.234
▁Spend	-12.2346
val	-12.2347
▁anti	-12.235
▁tolerable	-12.235
▁Ballys	-12.2351
▁manageable	-12.2352
▁depart	-12.2358
▁$65	-12.2362
▁bat	-12.2362
▁(30	-12.2363
Po	-12.2364
▁Whalers	-12.2366
▁thread	-12.2368
59	-12.2369
ites	-12.2372
share	-12.2375
▁primary	-12.2375
▁picks	-12.2375
▁Factory	-12.2375
!!!!!!!	-12.2376
▁hype	-12.2377
Car	-12.2377
▁weekly	-12.2379
▁foul	-12.2383
▁icing	-12.2386
▁Carte	-12.2389
▁homey	-12.2391
▁Miracle	-12.2392
▁crackers	-12.2394
gle	-12.2395
▁progress	-12.2397
▁blah	-12.2397
▁decently	-12.2399
▁capital	-12.24
ET	-12.2401
Pa	-12.2401
▁pile	-12.2402
▁waits	-12.2402
gue	-12.2416
mostly	-12.2418
▁Walked	-12.2419
lies	-12.2421
▁measure	-12.2425
▁queries	-12.2426
▁Verde	-12.2426
▁fe	-12.2426
▁difficulties	-12.243
▁faint	-12.2432
98	-12.2435
▁shine	-12.2436
▁Rent	-12.2438
▁Glad	-12.244
▁opulent	-12.2443
▁sunbathing	-12.2443
-20	-12.2444
▁Welcome	-12.2445
▁Canadians	-12.2446
facing	-12.2448
▁bedspreads	-12.2449
▁easiest	-12.2451
▁cabinets	-12.2452
▁gather	-12.2453
▁stunk	-12.246
▁tubes	-12.2461
ically	-12.2463
people	-12.2463
▁Cab	-12.2464
▁generously	-12.2465
▁identical	-12.2468
▁lovers	-12.2468
▁perfume	-12.2468
ld	-12.247
▁understandable	-12.2472
▁cappucino	-12.2476
▁external	-12.2477
▁Office	-12.2477
wall	-12.2477
cr	-12.248
▁purely	-12.2481
▁Pat	-12.2482
▁straw	-12.2484
sure	-12.2484
▁valid	-12.2485
▁ownership	-12.2486
cheese	-12.2492
▁Des	-12.2495
▁screwed	-12.2497
shirts	-12.25
▁sidewalks	-12.2501
▁Belvedere	-12.2502
▁debris	-12.2502
world	-12.2503
▁Weather	-12.2504
▁reduce	-12.2504
ura	-12.2505
▁fingers	-12.2506
▁drown	-12.2507
mas	-12.2507
▁dragging	-12.2511
▁ive	-12.2516
▁cooled	-12.2517
▁refreshments	-12.2518
ched	-12.2519
▁Ms	-12.2519
▁Noisy	-12.252
▁flaws	-12.2522
▁Dis	-12.2524
▁needle	-12.2527
▁altogether	-12.2528
▁blend	-12.2528
▁Camp	-12.2529
approx	-12.2531
▁sofabed	-12.2535
▁sex	-12.2535
▁glimpse	-12.2536
▁preparing	-12.2536
lle	-12.2539
▁lies	-12.2541
▁colours	-12.2542
ris	-12.255
▁2003	-12.255
▁sipping	-12.2554
▁Clearly	-12.2554
-2	-12.2558
▁Evening	-12.256
▁turkey	-12.2562
▁chances	-12.2564
▁Size	-12.257
▁robbed	-12.2571
▁Gogh	-12.2571
▁Ever	-12.2572
▁entrances	-12.2572
nny	-12.2574
▁luke	-12.2579
▁periods	-12.258
▁unusually	-12.2582
▁Bob	-12.2583
▁hardwood	-12.2584
▁fitting	-12.2584
▁Ben	-12.259
▁core	-12.2592
▁$55	-12.26
▁Fire	-12.26
▁filter	-12.2601
metro	-12.2601
▁valley	-12.2605
▁reeked	-12.2606
▁Late	-12.2609
▁cro	-12.261
gen	-12.2612
▁tide	-12.2613
ups	-12.2616
72	-12.2617
▁compliments	-12.2623
▁inclined	-12.2624
▁updates	-12.2629
▁beneath	-12.2631
▁limits	-12.2634
▁tunnel	-12.2639
▁hum	-12.264
continental	-12.2644
nights	-12.2644
▁weekday	-12.2645
▁Rush	-12.2649
block	-12.2653
pt	-12.2656
▁unlucky	-12.2657
▁Gas	-12.2657
▁Upper	-12.2657
▁stair	-12.2661
▁24/7.	-12.2661
▁confident	-12.2663
vis	-12.2663
▁Th	-12.2665
aged	-12.2666
▁Rest	-12.2668
▁THEY	-12.2668
▁abit	-12.2668
aly	-12.2669
▁inclusives	-12.267
▁wiped	-12.2671
▁frequented	-12.2672
▁pie	-12.2672
▁uphill	-12.2675
▁junk	-12.2676
▁faultless	-12.2676
▁containing	-12.2677
▁pleasurable	-12.2682
▁Lanai	-12.2683
▁SeaWorld	-12.2683
▁Lani	-12.2684
▁Activities	-12.2684
ator	-12.2685
£1	-12.2685
sco	-12.2687
▁swipe	-12.2689
▁tomato	-12.2693
66	-12.2693
):	-12.2694
▁dual	-12.2698
▁oddly	-12.2698
▁Virgin	-12.2702
▁Heavenly	-12.2703
▁gal	-12.2705
▁habit	-12.2708
▁princess	-12.2709
▁waterslide	-12.2711
ans	-12.2714
▁Typical	-12.2715
beds	-12.2716
▁jacket	-12.2718
▁companion	-12.2719
▁whoever	-12.2719
▁Master	-12.272
▁Bliss	-12.2726
▁exorbitant	-12.2726
▁Midway	-12.2726
▁utterly	-12.2727
iz	-12.2727
▁carpark	-12.2728
extra	-12.2729
lar	-12.273
▁overrated	-12.2731
illa	-12.2735
▁crashing	-12.2735
▁quietly	-12.2742
▁lighted	-12.2743
▁dislike	-12.2746
▁invest	-12.2749
nal	-12.2749
each	-12.2749
▁$10/	-12.2752
▁furnishing	-12.2753
▁$19	-12.2757
fashioned	-12.2757
filled	-12.2757
▁angle	-12.276
▁Meridien	-12.2761
▁Fridge	-12.2761
▁shopped	-12.2764
conditioner	-12.2765
Free	-12.2765
Lo	-12.2767
▁elements	-12.2768
▁guacamole	-12.277
▁Gothic	-12.277
▁Mercure	-12.277
▁Tim	-12.277
▁Lagoon	-12.2771
▁Mid	-12.2771
vy	-12.2773
ique	-12.2777
▁OJ	-12.2779
▁crawl	-12.278
▁$20.00	-12.2781
▁bound	-12.2782
luxury	-12.2782
▁horns	-12.2786
▁flowing	-12.2787
▁Creek	-12.2787
▁tempted	-12.2788
▁Non	-12.2789
68	-12.2793
▁7-	-12.2793
▁whale	-12.2796
▁respite	-12.2796
▁Quetzal	-12.2796
▁Sand	-12.2797
▁sail	-12.2798
▁kayaking	-12.28
▁chandeliers	-12.2806
while	-12.2807
▁exp	-12.281
▁bi	-12.281
▁winds	-12.281
▁DC	-12.2812
▁3/4	-12.2813
LA	-12.2813
▁motion	-12.2815
▁fence	-12.2815
▁spirits	-12.2821
▁rooftops	-12.2822
▁sh	-12.2826
▁kayak	-12.2828
pet	-12.2828
▁reps	-12.2829
▁Anna	-12.2831
ect	-12.2835
▁iguanas	-12.2842
sion	-12.2842
ants	-12.2844
▁cigars	-12.2846
▁($2	-12.2848
▁Nadia	-12.2849
▁admitted	-12.2857
tive	-12.2857
ella	-12.2857
▁stank	-12.2857
▁drunks	-12.2858
point	-12.2859
subway	-12.2862
ku	-12.2863
▁Ke	-12.2864
▁voices	-12.2864
▁lastminute	-12.2865
▁sport	-12.2866
▁registered	-12.287
▁brochures	-12.2871
May	-12.2872
▁Li	-12.2873
▁parasailing	-12.2876
▁Safari	-12.2884
▁rat	-12.2889
▁Vieques	-12.2893
▁BEAUTIFUL	-12.2893
ato	-12.2895
▁Gaudi	-12.2902
▁Balcony	-12.2902
▁alternate	-12.2904
▁polished	-12.2904
▁overseas	-12.2905
▁utilized	-12.291
▁Crown	-12.291
!!!!!!!!!!!!!!!!	-12.291
▁olives	-12.2911
▁Roberto	-12.2912
78	-12.2912
▁mistakes	-12.2913
▁Us	-12.2916
▁Today	-12.2917
▁Hello	-12.292
▁Mickey	-12.292
▁battery	-12.292
ium	-12.292
▁alittle	-12.2921
▁Cove	-12.2922
▁$32	-12.2922
▁sumptuous	-12.2928
-9	-12.2928
▁bien	-12.2932
▁privilege	-12.2932
▁trails	-12.2933
▁Tortuga	-12.2937
ses	-12.2937
▁vacant	-12.2937
come	-12.294
▁introduced	-12.2941
gs	-12.2941
▁preferences	-12.2942
▁dam	-12.2943
47	-12.2943
wine	-12.2945
▁Adventure	-12.2946
▁Causeway	-12.2955
▁vatican	-12.2955
▁feeding	-12.2957
46	-12.2958
▁candle	-12.2959
tourist	-12.2959
▁occupants	-12.2963
▁Moreover	-12.2965
kitchen	-12.2968
▁severe	-12.2972
▁Edison	-12.2973
▁$26	-12.2973
▁Gourmet	-12.2973
▁subways	-12.2973
Bar	-12.2982
▁bungalow	-12.2984
▁landmarks	-12.2989
▁immensely	-12.2992
▁char	-12.2992
life	-12.2998
▁PLACE	-12.3
▁broadband	-12.3
▁LONG	-12.3
▁mac	-12.3007
▁wich	-12.3007
▁Marathon	-12.3009
▁embarrassed	-12.3009
▁facade	-12.3009
▁BEWARE	-12.3009
worth	-12.301
▁song	-12.3011
▁engaged	-12.3012
safe	-12.3013
▁nevertheless	-12.3017
▁Mahana	-12.3018
88	-12.3019
TE	-12.3019
▁dissapointing	-12.3019
▁conscious	-12.3019
TMm	-12.3021
▁bothersome	-12.303
▁bleach	-12.3035
▁blessing	-12.3036
▁Tu	-12.3038
▁Europa	-12.3039
First	-12.304
pers	-12.3041
▁danish	-12.3043
lunch	-12.3044
please	-12.3049
▁madness	-12.3054
▁observation	-12.3056
▁headache	-12.3056
▁Jet	-12.3059
▁bass	-12.3061
▁troubles	-12.3061
▁activites	-12.3062
▁AWAY	-12.3064
▁fiancee	-12.3066
63	-12.3066
▁2011,	-12.3069
▁quantity	-12.3071
▁Prime	-12.3072
Although	-12.3076
▁Bowl	-12.3076
▁hors	-12.3077
▁infested	-12.308
▁killer	-12.3084
▁Enough	-12.3089
▁Horton	-12.309
▁Wellington	-12.309
▁poisoning	-12.309
▁stumbled	-12.3093
▁realy	-12.3094
▁Beijing	-12.3098
▁HHonors	-12.3098
▁Stadium	-12.3098
▁prayer	-12.3099
▁BA	-12.3101
▁heels	-12.3103
▁lover	-12.3104
▁glitch	-12.3107
▁diverse	-12.3107
▁para	-12.3107
▁loyal	-12.3107
such	-12.3108
▁ot	-12.3108
▁reflection	-12.3109
▁mainland	-12.3112
▁Coliseum	-12.3117
▁Cook	-12.3117
▁believed	-12.3118
▁escalator	-12.312
▁photographer	-12.3129
perhaps	-12.313
▁Balboa	-12.3135
▁abroad	-12.3135
▁Buena	-12.3135
▁vacationers	-12.3137
▁Kea	-12.3138
usually	-12.3139
▁closely	-12.3144
▁tasteless	-12.3145
▁Mind	-12.3146
▁Yunque	-12.3153
▁20-25	-12.3155
▁goal	-12.3156
SE	-12.3159
ugh	-12.316
▁au	-12.316
loved	-12.3162
▁Hideaway	-12.3162
▁captain	-12.3163
▁divided	-12.3164
▁Nobody	-12.3164
▁$15/	-12.3164
American	-12.3169
▁lesser	-12.317
▁bummer	-12.3171
▁pi	-12.3173
▁granola	-12.318
64	-12.3182
▁Centrally	-12.3189
▁adorable	-12.3189
▁tatty	-12.3189
ula	-12.3191
/3	-12.3192
▁Yeah	-12.3194
▁stack	-12.3199
▁Ana	-12.32
▁conventions	-12.32
▁spotted	-12.3205
▁Horizon	-12.3208
▁northern	-12.3208
▁bingo	-12.3208
▁Loop	-12.3209
ours	-12.3211
▁Lux	-12.3212
43	-12.3212
ala	-12.3213
▁Literally	-12.3217
▁Above	-12.3218
▁veggies	-12.3219
▁contains	-12.3219
▁toured	-12.3221
ls	-12.3223
▁Furniture	-12.3226
▁Visited	-12.3229
ute	-12.323
ven	-12.323
▁vi	-12.3231
▁Tr	-12.3234
▁Xmas	-12.3235
▁nibbles	-12.3237
▁exc	-12.3237
▁observed	-12.3238
▁ranked	-12.3241
▁safes	-12.3245
▁snob	-12.3246
▁sensor	-12.3248
▁cos	-12.3254
▁sliced	-12.3255
fruit	-12.3258
▁advertises	-12.326
▁reaching	-12.3261
▁teenager	-12.3263
▁director	-12.3264
row	-12.3266
serve	-12.3266
▁reset	-12.3271
▁energetic	-12.3272
▁bellagio	-12.3272
▁campus	-12.3272
▁continuously	-12.3273
▁compete	-12.3273
▁Everywhere	-12.3275
▁broadway	-12.3281
▁Peters	-12.3281
▁Corner	-12.3282
▁Trail	-12.3282
put	-12.3282
▁sunlight	-12.3284
▁hosted	-12.3287
▁europe	-12.3289
▁Accademia	-12.329
nder	-12.3291
▁bins	-12.3294
IL	-12.3294
ot	-12.3295
▁hockey	-12.3299
▁faulted	-12.3301
▁HKD	-12.3305
▁HOWEVER	-12.3309
▁individually	-12.331
▁switching	-12.3312
▁certificate	-12.3313
▁refresh	-12.3316
Con	-12.3316
▁government	-12.3318
▁Freemont	-12.3318
▁Fishermans	-12.3318
cent	-12.332
▁ramblas	-12.3321
▁FL	-12.3321
pot	-12.3322
▁adapter	-12.3323
▁rugs	-12.3325
▁Incredible	-12.3327
▁awoken	-12.3329
taxi	-12.3337
▁awoke	-12.3339
▁>	-12.3342
▁gu	-12.3343
▁Caracol	-12.3346
▁uses	-12.3346
▁classical	-12.3348
taking	-12.3348
upgrade	-12.3353
▁fl	-12.3354
▁Hut	-12.3364
▁opener	-12.3365
▁countertops	-12.3365
▁neglected	-12.3365
▁plaster	-12.3373
▁PA	-12.3378
▁alike	-12.3379
▁becuase	-12.3383
▁sterile	-12.3383
▁gloomy	-12.3383
▁exec	-12.3385
▁Sp	-12.3386
▁aswell	-12.3387
58	-12.3388
▁101	-12.3392
▁restraunts	-12.3395
▁coaster	-12.3397
tta	-12.3403
▁wishes	-12.3404
▁bubble	-12.3406
Nice	-12.341
▁Financial	-12.3411
▁MI	-12.3416
TA	-12.342
▁threadbare	-12.342
▁cement	-12.3421
▁2000	-12.3423
pay	-12.3427
look	-12.3429
▁attitudes	-12.3429
▁travelodge	-12.3429
▁Further	-12.343
▁burns	-12.3433
▁pat	-12.3435
▁someday	-12.3436
▁Nicely	-12.3438
▁organic	-12.3439
▁Ranch	-12.3439
▁mixture	-12.3439
▁reflected	-12.3444
▁WITH	-12.3448
▁oriental	-12.3449
▁Rican	-12.3449
▁Covent	-12.3449
▁(3)	-12.3452
▁ro	-12.3455
kind	-12.3456
▁Tai	-12.3456
▁wires	-12.3457
▁Mallory	-12.3458
THE	-12.3459
▁Cant	-12.3459
superior	-12.3462
▁Request	-12.3463
TMd	-12.3465
▁Regardless	-12.3467
Star	-12.3474
▁Jardin	-12.3476
▁8.30	-12.3479
▁amusing	-12.348
76	-12.3481
▁Va	-12.3481
white	-12.3482
▁award	-12.3483
ray	-12.3484
▁Disturb	-12.3485
▁grew	-12.3486
▁$20/	-12.3487
▁prop	-12.3488
▁superbly	-12.3491
”.	-12.3494
▁Arena	-12.3494
▁adventurous	-12.3495
▁li	-12.3497
▁avoiding	-12.35
▁Reasonable	-12.3504
▁wo	-12.3506
shops	-12.3507
literally	-12.3509
▁verify	-12.351
▁gallery	-12.3514
▁ka	-12.3515
▁Shame	-12.3516
▁j	-12.3521
▁insane	-12.3521
▁hail	-12.3526
87	-12.3526
▁burning	-12.3532
▁Brooklyn	-12.3533
▁Tsim	-12.3533
▁pampering	-12.3534
▁reviewing	-12.3534
▁midday	-12.3535
▁finishes	-12.3538
▁stairwell	-12.3538
▁Stop	-12.3539
▁Sound	-12.3541
41	-12.3541
▁facelift	-12.3542
▁Mrs	-12.3547
▁lei	-12.3547
ille	-12.3548
unlike	-12.355
▁9.30	-12.3553
▁Cor	-12.3554
ced	-12.3554
going	-12.3556
▁luggages	-12.3557
▁rustic	-12.3558
BR	-12.3559
▁flaw	-12.3562
EST	-12.3563
▁gamblers	-12.3564
▁devices	-12.3568
▁fares	-12.3568
▁venetian	-12.357
▁Max	-12.3571
▁uptown	-12.3573
▁packet	-12.3578
▁15%	-12.358
▁spartan	-12.358
▁deter	-12.358
▁MA	-12.3581
▁bicycles	-12.3581
▁Newbury	-12.3581
cation	-12.3583
▁decorating	-12.3584
local	-12.3585
▁greater	-12.3586
▁dear	-12.3587
any	-12.3587
▁ultimately	-12.3591
▁opinions	-12.3594
plenty	-12.3594
▁breaks	-12.3597
▁radius	-12.3599
▁died	-12.3607
▁Robert	-12.3607
▁screw	-12.3611
▁polo	-12.3611
ENT	-12.3612
▁Rosa	-12.3612
▁Bur	-12.3615
▁amusement	-12.3618
▁Charming	-12.362
▁optional	-12.3621
▁rains	-12.3624
▁WORST	-12.3627
▁Mostly	-12.363
▁Valentine	-12.363
ari	-12.363
met	-12.3634
▁depend	-12.3636
▁ottoman	-12.3637
▁tranquility	-12.3637
▁Checkin	-12.3638
ea	-12.3641
amazing	-12.3642
▁Simple	-12.3646
ji	-12.365
▁antiques	-12.3655
▁revisit	-12.3657
▁Foods	-12.3661
fun	-12.3662
▁focused	-12.3664
Ro	-12.3665
▁Roy	-12.3665
▁Target	-12.3666
▁Waterfront	-12.3666
towels	-12.3668
▁speciality	-12.3669
▁unfair	-12.3671
▁uneven	-12.3672
▁itinerary	-12.3675
▁assorted	-12.3675
▁caribbean	-12.3676
▁1/4	-12.3679
▁Ja	-12.3681
▁Relais	-12.3685
▁Mag	-12.3685
▁produced	-12.3685
ified	-12.3686
El	-12.3689
oni	-12.369
▁occassions	-12.3693
▁Francis	-12.3694
▁unobtrusive	-12.3694
▁valued	-12.3696
▁Ham	-12.3702
▁iPad	-12.3704
▁beg	-12.3705
▁ribs	-12.3707
▁suck	-12.371
▁excelent	-12.3711
▁Cal	-12.3713
▁vintage	-12.3714
dam	-12.3714
els	-12.3714
▁jetted	-12.3715
af	-12.3716
cost	-12.3717
ways	-12.3722
▁Jolla	-12.3723
▁RESORT	-12.3724
▁starters	-12.3726
▁Cup	-12.3726
▁crown	-12.3727
▁hunt	-12.3727
pr	-12.3731
▁envelope	-12.3732
-3	-12.3732
CH	-12.3734
▁strict	-12.3741
▁wrist	-12.3743
▁tomatoes	-12.3743
▁Ann	-12.3746
show	-12.3748
▁posting	-12.3748
▁Bal	-12.3748
▁university	-12.3752
▁Depend	-12.3752
▁Southernmost	-12.3752
cafe	-12.3755
▁cha	-12.376
▁stink	-12.3763
▁fewer	-12.3765
▁convienent	-12.3771
▁Flamenco	-12.3771
么	-12.3771
▁packets	-12.3775
dated	-12.3777
▁swear	-12.3777
bring	-12.3778
▁Indy	-12.3781
▁DEFINITELY	-12.3781
62	-12.3783
▁7)	-12.3785
▁ga	-12.3785
▁pic	-12.3786
▁Table	-12.379
▁prostitutes	-12.3795
▁dec	-12.3797
▁ranged	-12.3797
▁fills	-12.3798
elli	-12.3799
▁scare	-12.3799
▁hazard	-12.38
laws	-12.38
▁Ali	-12.38
▁scratched	-12.3804
5)	-12.3809
ground	-12.381
▁Ver	-12.3813
▁Cleaning	-12.3814
▁WC	-12.3816
▁unreasonable	-12.382
▁softer	-12.3821
▁Beer	-12.3822
▁Eggs	-12.3822
▁yelled	-12.3822
▁mop	-12.3824
ried	-12.3826
▁upkeep	-12.3827
▁curt	-12.3827
▁Elysee	-12.3827
▁Colonial	-12.383
▁barefoot	-12.383
▁Cu	-12.3831
InterContinental	-12.3834
▁lunchtime	-12.3837
▁smoothies	-12.3838
▁Banyan	-12.3839
▁disinterested	-12.384
▁irritated	-12.384
.30	-12.3843
▁Hu	-12.3846
ace	-12.3846
▁worrying	-12.3847
thing	-12.3847
▁outweigh	-12.3848
▁congested	-12.3849
▁ledge	-12.385
ered	-12.3851
ture	-12.3853
value	-12.3854
▁desperately	-12.3854
▁Talk	-12.3855
▁sc	-12.3855
▁Feel	-12.3856
hole	-12.3858
▁Palladium	-12.3859
▁hilarious	-12.3859
▁lining	-12.3862
▁intention	-12.3862
▁ponds	-12.3865
▁argument	-12.3866
▁advising	-12.3868
▁overhaul	-12.387
▁OUT	-12.387
▁refills	-12.387
manager	-12.3874
bra	-12.3877
▁shoot	-12.3878
▁elegantly	-12.3878
▁Nearby	-12.3879
ado	-12.3881
▁fallen	-12.3881
▁excess	-12.3883
lay	-12.3887
▁Seemed	-12.3888
▁Azteca	-12.3888
▁Fe	-12.3889
▁overcharged	-12.3895
rm	-12.3897
play	-12.39
▁organise	-12.39
▁tears	-12.3903
▁lucked	-12.3904
cher	-12.3906
▁Skip	-12.3907
▁Laundry	-12.3908
▁ple	-12.3908
mic	-12.3911
▁mild	-12.3913
▁elaborate	-12.3917
▁600	-12.3922
▁touching	-12.3923
▁Aston	-12.3927
▁Petco	-12.3927
▁developed	-12.3929
wn	-12.3933
▁laps	-12.3934
▁colored	-12.3934
▁Elevator	-12.3936
▁Marble	-12.3938
▁Wasn	-12.3939
▁sleeps	-12.3939
▁magazine	-12.3946
▁survey	-12.3947
▁Warm	-12.3952
!!).	-12.3953
▁Chose	-12.3955
▁Ri	-12.3956
▁Dorado	-12.3957
ail	-12.3957
▁bull	-12.3958
thin	-12.3959
▁192	-12.396
▁sockets	-12.3965
▁housed	-12.3967
▁Petit	-12.3972
zing	-12.3973
rain	-12.3975
▁Bldg	-12.3976
▁sealed	-12.3983
▁plant	-12.3984
▁painful	-12.3986
▁Looks	-12.3987
▁bearable	-12.3988
▁peep	-12.399
▁accent	-12.3995
▁Yacht	-12.3996
▁medication	-12.3996
AR	-12.3998
▁stole	-12.3998
▁promises	-12.3999
▁breaker	-12.4
▁bellhops	-12.4001
cream	-12.4002
▁pictured	-12.4002
uring	-12.4005
mailed	-12.4006
▁Contemporary	-12.4006
▁iPhone	-12.4008
▁cheery	-12.4008
▁exhibit	-12.4013
sta	-12.4014
▁Fab	-12.4016
▁disturbance	-12.4017
▁Marketplace	-12.4017
▁electronics	-12.4018
ently	-12.4019
▁spas	-12.4021
▁freely	-12.4025
reception	-12.4026
▁organization	-12.4026
▁sooooo	-12.4026
▁damn	-12.4028
▁doorway	-12.4035
▁Thus	-12.4036
100	-12.4037
▁alert	-12.4037
party	-12.4038
97	-12.4039
▁encouraged	-12.4039
▁Albert	-12.4039
▁documents	-12.404
▁applied	-12.4046
ien	-12.4048
▁physically	-12.4049
July	-12.4052
ges	-12.4055
▁hearty	-12.4059
▁interiors	-12.406
...).	-12.4064
▁ears	-12.4065
▁CAN	-12.4068
▁everynight	-12.407
▁tee	-12.407
welcome	-12.407
(3	-12.4072
▁shoulder	-12.4076
▁placing	-12.4077
▁Visit	-12.4077
▁china	-12.4078
Mart	-12.4084
gin	-12.4086
▁ba	-12.4086
shop	-12.4093
▁ST	-12.4094
▁blank	-12.4095
▁shining	-12.4097
61	-12.4097
being	-12.4099
▁floats	-12.41
▁Walt	-12.4102
▁humor	-12.4103
/24	-12.4107
eur	-12.4107
▁incompetent	-12.4116
▁indication	-12.4116
▁Regent	-12.4117
▁12:00	-12.4118
56	-12.412
▁cheaply	-12.4123
UR	-12.4123
▁cope	-12.4125
▁Conquistador	-12.4126
▁TWO	-12.4126
▁HBO	-12.4126
▁unload	-12.4128
▁52	-12.413
54	-12.4132
▁chi	-12.4135
▁Everybody	-12.4136
▁drilling	-12.4138
▁pockets	-12.4145
last	-12.4145
▁Magnolia	-12.4146
before	-12.4151
▁aqua	-12.4153
inclusives	-12.4155
▁cliff	-12.4156
ena	-12.4156
▁consisting	-12.4158
▁exhaust	-12.4164
▁shiny	-12.4166
▁bearings	-12.4168
▁lime	-12.4169
▁longest	-12.4169
▁draft	-12.4173
▁margarita	-12.4176
▁creating	-12.4176
mel	-12.4177
▁parent	-12.4178
/4	-12.418
▁rod	-12.418
oz	-12.4186
▁disadvantage	-12.4186
▁medicine	-12.4186
▁SMALL	-12.4186
▁Surprisingly	-12.4186
▁Package	-12.4187
74	-12.4188
▁Calle	-12.4189
▁BED	-12.4193
▁beachside	-12.4193
SS	-12.4195
▁knob	-12.4197
Can	-12.4197
▁pretend	-12.4198
84	-12.4202
mark	-12.4204
▁tradition	-12.4205
▁reluctantly	-12.4209
▁es	-12.4214
ek	-12.4215
с	-12.4216
▁Door	-12.4219
▁nightclubs	-12.422
ration	-12.4224
▁Nikko	-12.4226
▁Vecchio	-12.4226
▁Southern	-12.4226
▁jammed	-12.4227
lip	-12.4229
tour	-12.4229
▁july	-12.423
▁Put	-12.4236
▁Carnival	-12.4236
▁Chrysler	-12.4236
▁Wild	-12.4245
vin	-12.4246
▁stranded	-12.4246
▁Outback	-12.4247
nia	-12.4248
▁faults	-12.4249
lia	-12.4252
field	-12.4256
▁flops	-12.4257
▁sha	-12.426
▁scented	-12.4264
▁blaring	-12.4267
▁Rum	-12.4267
ito	-12.4273
▁knee	-12.4274
▁pa	-12.4276
▁Donatello	-12.4277
▁Nespresso	-12.4277
▁jeans	-12.4277
▁Member	-12.4278
mat	-12.4279
▁cl	-12.4279
▁tail	-12.428
▁salty	-12.4284
▁Ste	-12.4284
▁wasting	-12.4285
▁august	-12.4287
▁Ireland	-12.4287
▁confirming	-12.4288
▁OMG	-12.4288
▁Mont	-12.4294
rent	-12.4296
▁cruises	-12.4305
▁differ	-12.4307
▁spec	-12.4307
▁Emirates	-12.4307
▁Tsui	-12.4307
▁Delicious	-12.4308
▁brisk	-12.4308
▁51	-12.4311
▁vomit	-12.4314
伄	-12.4318
▁Elizabeth	-12.4318
▁Michel	-12.4319
▁everthing	-12.4322
▁wire	-12.4324
▁appreciative	-12.4328
▁galore	-12.4328
▁depth	-12.4329
▁hash	-12.4334
▁Stars	-12.4337
▁dominican	-12.4338
▁MANY	-12.4338
tting	-12.4339
▁3-5	-12.4341
having	-12.4343
▁pounding	-12.4344
92	-12.4346
▁Regard	-12.4349
▁café	-12.435
av	-12.4352
cus	-12.4353
▁Brand	-12.4353
▁ATV	-12.4356
▁180	-12.436
▁Under	-12.4361
▁manners	-12.4368
ship	-12.4368
across	-12.4368
rio	-12.4368
▁strawberry	-12.4369
▁mystery	-12.4369
▁Temple	-12.437
▁socket	-12.437
warm	-12.4373
▁mouldy	-12.4375
Thanks	-12.4377
garden	-12.4378
▁Metropolitan	-12.4379
done	-12.438
ane	-12.438
▁procedure	-12.438
ear	-12.4381
▁bumpy	-12.4381
▁enhanced	-12.4383
▁dr	-12.4389
▁Costco	-12.439
▁Elite	-12.4392
▁faulty	-12.4392
▁messy	-12.4397
▁SFO	-12.4402
▁indicate	-12.4404
▁outrageously	-12.4407
▁Fo	-12.4409
▁nu	-12.4409
▁pavement	-12.441
▁marvellous	-12.441
live	-12.4415
▁prefered	-12.442
eries	-12.4422
▁darn	-12.4425
▁homework	-12.4425
▁auto	-12.443
▁pedicure	-12.4431
▁organize	-12.4434
▁boasts	-12.4434
▁staring	-12.4438
▁Lot	-12.4438
▁drains	-12.444
57	-12.4441
▁Em	-12.4444
▁pig	-12.4446
▁dome	-12.4447
▁attempting	-12.4448
96	-12.4449
▁glamorous	-12.4451
▁snooty	-12.4452
▁hooks	-12.4453
morning	-12.4457
▁Islands	-12.4458
▁Bayside	-12.4458
▁insect	-12.4461
"...	-12.4461
▁upfront	-12.4461
▁Google	-12.4462
▁refrig	-12.4462
del	-12.4464
tz	-12.4465
▁interacted	-12.4465
▁saver	-12.4465
▁Tons	-12.4465
▁Oasis	-12.4472
▁90%	-12.4473
▁landmark	-12.4474
ely	-12.4477
..........	-12.4481
▁Hospital	-12.4483
▁05	-12.4484
▁chap	-12.4484
.25	-12.4485
▁Checkout	-12.4485
▁ce	-12.4486
ev	-12.4487
▁Buses	-12.4488
within	-12.4494
tip	-12.45
71	-12.45
▁jr	-12.4503
CO	-12.4503
▁struggling	-12.4503
ult	-12.4506
▁sexy	-12.4506
▁biggie	-12.4507
▁palms	-12.4507
▁complains	-12.4508
eggs	-12.4508
complimentary	-12.4509
▁Ni	-12.451
(21	-12.4511
▁$130	-12.4512
▁restrooms	-12.4512
▁currency	-12.4514
▁Arrival	-12.4514
▁replenish	-12.4515
mes	-12.4516
nite	-12.4517
▁4/5	-12.4524
▁je	-12.4528
▁lu	-12.4529
▁Six	-12.4529
500	-12.4532
▁BC	-12.4532
shirt	-12.4532
▁distinct	-12.4532
Euro	-12.4533
▁preparation	-12.4534
wed	-12.4536
▁approachable	-12.4536
▁Finding	-12.4538
▁shake	-12.4539
▁adventures	-12.4539
ising	-12.4541
/06	-12.4543
3)	-12.4543
▁timeshares	-12.4545
▁homely	-12.4551
round	-12.4552
▁concerning	-12.4553
▁deceiving	-12.4555
cco	-12.4556
ib	-12.4557
three	-12.4564
83	-12.4566
▁fr	-12.457
mm	-12.4572
▁peeve	-12.4573
▁Tra	-12.4573
gr	-12.4575
▁safari	-12.4576
▁vegetation	-12.4576
oc	-12.4578
▁FAR	-12.458
Ba	-12.4581
pu	-12.4582
▁users	-12.4583
▁Bear	-12.4584
▁Ya	-12.4585
▁Nazionale	-12.4587
▁pump	-12.459
▁LOTS	-12.459
▁naturally	-12.459
ttle	-12.4592
▁Week	-12.4593
▁commend	-12.4594
▁1/3	-12.4595
▁Life	-12.4598
▁Changi	-12.4603
▁gripes	-12.4606
▁Fiori	-12.4608
▁NICE	-12.4608
▁Accor	-12.4608
▁SUPER	-12.4609
▁exceedingly	-12.4619
▁arrives	-12.4621
pass	-12.4624
internet	-12.4624
▁conf	-12.4624
▁peek	-12.4626
▁slick	-12.4629
eye	-12.463
▁brew	-12.463
oriented	-12.4635
gate	-12.4636
▁flamingos	-12.4637
▁Mu	-12.4639
▁Regina	-12.4639
▁Class	-12.464
▁admittedly	-12.4643
▁incidentals	-12.4646
little	-12.4647
lt	-12.4648
▁punch	-12.4649
▁Mai	-12.4649
▁alongside	-12.4653
67	-12.4657
▁Ven	-12.466
▁($5	-12.4662
▁dolphin	-12.4663
▁determined	-12.4666
▁signing	-12.4669
▁begins	-12.4677
albeit	-12.4677
▁dreary	-12.4682
▁criteria	-12.4682
▁lemonade	-12.4682
▁Swan	-12.4682
ction	-12.4682
▁Sign	-12.4685
▁shy	-12.4686
▁argued	-12.4686
IA	-12.4688
▁tissues	-12.4688
▁parrots	-12.4696
▁ob	-12.4701
▁peacocks	-12.4702
▁greenery	-12.4704
uc	-12.4704
▁favorable	-12.4705
▁ensur	-12.4705
▁linked	-12.471
▁occur	-12.4712
▁Shinjuku	-12.4713
▁crime	-12.4714
▁awaiting	-12.4714
▁Anyways	-12.4721
▁ritz	-12.4723
▁facilites	-12.4724
▁existent	-12.4726
▁drying	-12.4726
along	-12.4727
▁pits	-12.4727
▁pint	-12.4729
▁overcooked	-12.473
▁expenses	-12.4732
▁Vaporetto	-12.4735
▁defiantly	-12.4735
▁definitley	-12.4735
▁grandson	-12.4736
▁brighter	-12.4743
▁Ontario	-12.4745
lla	-12.4746
▁belong	-12.4747
▁6.30	-12.4749
▁architectural	-12.4753
▁chlorine	-12.4756
▁varieties	-12.4756
▁FROM	-12.4756
▁redeeming	-12.4758
▁***	-12.476
▁nit	-12.4763
▁Sundays	-12.4763
▁sip	-12.4764
▁Antonio	-12.4767
▁Terrific	-12.4767
ability	-12.4773
▁cal	-12.4773
act	-12.4776
▁nut	-12.4776
▁increased	-12.4777
▁History	-12.4777
▁Bakery	-12.4778
▁traps	-12.4778
▁Au	-12.478
▁cinema	-12.4781
▁speaker	-12.4781
▁Eric	-12.4783
▁resulting	-12.4783
cia	-12.4787
▁abound	-12.4788
:-	-12.4788
▁amenties	-12.4788
▁popped	-12.4789
▁unlocked	-12.4791
▁CO	-12.4794
teen	-12.4794
▁target	-12.4797
took	-12.4798
▁nephew	-12.4799
▁ghost	-12.4799
▁Mayfair	-12.4799
▁lifeguards	-12.48
▁gi	-12.4809
▁Kihei	-12.4809
▁exchanged	-12.4811
▁$350	-12.4812
▁Everytime	-12.4813
▁appartment	-12.4813
▁afforded	-12.4815
▁Konak	-12.482
▁performers	-12.4821
▁ratio	-12.4825
▁Orchid	-12.4831
▁Sunwing	-12.4831
▁TIME	-12.4834
▁Quarters	-12.4836
▁injury	-12.4842
▁absence	-12.4842
▁dissapointment	-12.4842
▁precious	-12.4842
▁CHECK	-12.4843
▁layer	-12.4845
queen	-12.4846
▁Reservations	-12.4848
▁shells	-12.485
▁harsh	-12.4853
▁54	-12.4855
▁veg	-12.4856
▁gra	-12.4858
particularly	-12.4858
▁Thomson	-12.4863
▁disgrace	-12.4873
▁Children	-12.4874
▁Captain	-12.4874
▁cenote	-12.4878
▁provider	-12.4883
cons	-12.4883
▁wipe	-12.4887
▁mill	-12.4887
▁$125	-12.4889
▁Embarcadero	-12.4896
▁Post	-12.4898
▁Ten	-12.4901
▁exiting	-12.4901
story	-12.4901
sha	-12.4903
▁Parks	-12.4903
▁Disco	-12.4904
▁kingsize	-12.4905
▁Kodak	-12.4906
▁kudos	-12.4906
pick	-12.4907
▁closeby	-12.4908
AD	-12.4912
ash	-12.4913
▁understatement	-12.4917
▁trolleys	-12.4917
▁57	-12.4919
aid	-12.492
▁Problem	-12.4922
▁advantages	-12.4923
than	-12.4928
▁TLC	-12.4929
▁google	-12.4929
▁Lucky	-12.493
▁counted	-12.4933
▁hitch	-12.4935
▁ranking	-12.4937
▁outskirts	-12.4939
▁upbeat	-12.4939
/05	-12.4947
▁pizzeria	-12.495
▁95	-12.4951
ju	-12.4952
▁adjustable	-12.4952
▁tie	-12.4957
▁clo	-12.4958
▁discreet	-12.4958
▁DAY	-12.4961
▁flair	-12.4962
▁30-40	-12.4962
aka	-12.4965
▁$600	-12.4965
▁apologised	-12.4966
▁(?)	-12.4968
▁Olive	-12.4969
vacation	-12.497
▁untill	-12.4971
▁Bayswater	-12.4972
▁empire	-12.4972
▁HAD	-12.4972
▁manned	-12.4974
▁cry	-12.4974
▁Few	-12.4977
▁craps	-12.4977
ford	-12.4977
shampoo	-12.4978
ride	-12.4978
▁abrupt	-12.498
▁ser	-12.4982
▁Beyond	-12.4982
▁eclectic	-12.4982
▁license	-12.4982
hip	-12.4986
▁curb	-12.4986
▁Secret	-12.4988
Al	-12.499
▁marketing	-12.4992
▁war	-12.4992
nts	-12.4992
	-12.4993
▁feast	-12.4993
▁Mountain	-12.4994
▁floral	-12.4995
▁Arch	-12.4996
Excellent	-12.5
▁Pina	-12.5001
▁Wait	-12.5003
▁behalf	-12.5003
94	-12.5006
▁Crystal	-12.501
▁Fort	-12.5014
las	-12.5015
▁nonsmoking	-12.5015
▁cheerfully	-12.5019
▁protected	-12.5019
▁boulevard	-12.5026
▁hotter	-12.5032
▁bracelet	-12.5032
sometimes	-12.5033
▁escort	-12.5033
▁hefty	-12.5037
▁rectify	-12.5037
▁sunken	-12.5038
juice	-12.5043
▁separating	-12.5048
▁cla	-12.5049
Mo	-12.505
▁exhibition	-12.505
▁Sen	-12.5053
▁Pres	-12.5055
▁Marquis	-12.5059
anna	-12.5064
pretty	-12.5065
Mar	-12.5067
▁raved	-12.5069
▁aunt	-12.5069
▁Casablanca	-12.507
▁Uffizi	-12.507
▁pricier	-12.507
▁colder	-12.507
▁sightsee	-12.5073
mile	-12.5074
▁turtle	-12.5076
▁crossed	-12.5077
valet	-12.5079
200	-12.508
▁BO	-12.5084
▁credited	-12.5085
▁discussed	-12.5087
bel	-12.5091
▁centers	-12.5092
▁interstate	-12.5092
▁GBP	-12.5093
▁Hey	-12.5093
ima	-12.5095
73	-12.5101
▁indian	-12.5102
du	-12.5103
▁infront	-12.5103
▁cautious	-12.5103
▁Major	-12.5103
▁sandals	-12.5104
▁sleepless	-12.5104
▁refrigerators	-12.5104
▁Ä	-12.5104
▁seal	-12.5105
▁fulfilled	-12.5105
86	-12.5108
??)	-12.511
working	-12.5111
▁military	-12.5114
ying	-12.5115
▁handles	-12.5115
▁Olina	-12.5115
▁km	-12.5116
▁Seaside	-12.5117
▁roast	-12.5117
▁hottub	-12.5118
▁movement	-12.512
list	-12.5121
▁urge	-12.5123
nna	-12.5124
▁engaging	-12.5125
▁inedible	-12.5125
▁elite	-12.5126
dia	-12.5129
▁ornate	-12.5135
93	-12.5136
▁suspicious	-12.5136
▁seminar	-12.5136
▁chase	-12.5137
▁swanky	-12.5137
▁lil	-12.5138
▁Sch	-12.5139
carte	-12.5144
sive	-12.5145
Now	-12.5145
▁Chicken	-12.5147
▁60'	-12.5148
▁Coconut	-12.5148
▁estate	-12.5148
▁greated	-12.5151
▁purchases	-12.5157
▁connectivity	-12.5159
▁surgery	-12.5159
▁development	-12.5159
highly	-12.5159
▁commute	-12.516
▁hose	-12.516
cess	-12.5163
▁respects	-12.5163
▁nail	-12.5163
Mexican	-12.5165
▁follows	-12.5165
▁swans	-12.5165
▁canned	-12.5167
▁technician	-12.517
▁Café	-12.517
▁scratch	-12.517
▁Si	-12.5171
tail	-12.5171
▁hits	-12.5172
▁acc	-12.5173
▁bump	-12.5179
AC	-12.5179
▁sweeping	-12.5183
ser	-12.5184
▁decorative	-12.5185
▁Bose	-12.5186
▁beatiful	-12.5187
eria	-12.5189
▁ding	-12.519
▁Indeed	-12.5192
▁Summary	-12.5192
▁trend	-12.5194
private	-12.5198
▁sticks	-12.52
rant	-12.5204
▁perform	-12.5204
▁Highway	-12.5205
▁convince	-12.5207
▁protect	-12.5209
-25	-12.5209
▁flooding	-12.5209
nor	-12.5214
▁ignorant	-12.5214
▁shrugged	-12.5214
▁carribean	-12.5215
▁Za	-12.5215
▁twist	-12.522
▁scooter	-12.5221
▁Frankly	-12.5222
making	-12.5225
▁aircraft	-12.5227
▁Jim	-12.5227
four	-12.5231
▁selecting	-12.5239
▁mature	-12.5244
qua	-12.5245
half	-12.5245
▁unwilling	-12.5248
.75	-12.5248
▁restricted	-12.5249
▁informing	-12.5249
elle	-12.5253
miss	-12.5254
▁ranks	-12.5258
Grand	-12.5265
▁Eastern	-12.5265
▁enthusiasm	-12.527
▁airfare	-12.5272
rri	-12.5275
▁acts	-12.5277
huge	-12.5277
▁viewed	-12.528
wing	-12.5281
▁Polynesian	-12.5282
▁clueless	-12.5283
▁outer	-12.5286
stars	-12.5292
een	-12.5292
▁requiring	-12.5293
▁hassles	-12.5293
▁tied	-12.5296
happy	-12.5298
ceiling	-12.5299
▁HO	-12.5301
▁behold	-12.5304
▁$140	-12.5305
▁refurbishing	-12.5305
▁breathe	-12.5306
▁successful	-12.5306
▁Parker	-12.5312
name	-12.5317
▁comforting	-12.532
wonderful	-12.5322
▁Minor	-12.5322
▁luxuries	-12.5327
▁lighter	-12.533
▁Final	-12.5332
▁sideways	-12.5332
$1	-12.5334
ient	-12.5334
▁youngest	-12.5336
▁nighttime	-12.5337
▁Nonetheless	-12.5338
▁ballroom	-12.5338
▁alarms	-12.5339
▁Want	-12.5342
▁($10	-12.5344
ending	-12.5345
▁dimly	-12.5347
▁Fountains	-12.5349
▁Fajardo	-12.5349
▁Handlery	-12.5349
▁Maintenance	-12.5349
▁Hertz	-12.5349
▁Ed	-12.5351
▁thousand	-12.5357
▁delivering	-12.5357
▁filth	-12.5358
▁horrid	-12.5361
▁46	-12.5362
istic	-12.5364
▁DE	-12.5364
▁temps	-12.5369
▁Pointe	-12.5369
▁Dan	-12.537
Even	-12.5371
▁Budget	-12.5372
▁$29	-12.5374
wl	-12.5375
▁represented	-12.5375
▁waived	-12.5376
▁effectively	-12.5379
far	-12.5382
▁silence	-12.5383
▁Pitt	-12.5385
ec	-12.5385
€”	-12.5388
▁Gra	-12.5389
▁appreciation	-12.5395
▁$15.00	-12.5395
▁shack	-12.5397
▁Everyday	-12.5398
lk	-12.5405
fall	-12.5406
▁unknown	-12.5407
▁Elvis	-12.5407
▁neighbour	-12.5408
▁stinky	-12.5409
▁Inter	-12.5411
▁obtained	-12.5412
▁fre	-12.5414
▁interact	-12.5414
8.00	-12.5415
▁Ad	-12.5417
▁syrup	-12.5417
▁slightest	-12.5419
▁compromise	-12.5421
▁gotta	-12.5423
▁worlds	-12.5424
▁Laguna	-12.5429
▁Cold	-12.5434
ef	-12.5434
▁restraunt	-12.5437
▁Spotless	-12.5439
▁goodbye	-12.5439
	-12.544
▁exemplary	-12.544
▁Highland	-12.5442
▁talented	-12.5442
▁strictly	-12.5443
▁Ac	-12.545
▁sim	-12.5452
cab	-12.5455
IS	-12.5455
▁8-10	-12.5457
▁functions	-12.5458
(20	-12.5461
▁caveat	-12.5463
▁scaffolding	-12.5463
▁meticulously	-12.5464
rr	-12.5465
▁boiling	-12.5466
▁monitor	-12.5467
▁contributed	-12.5467
▁Wan	-12.5469
▁cu	-12.547
▁proceed	-12.5471
▁thanked	-12.5471
Bo	-12.5472
mine	-12.5474
▁issued	-12.5477
▁bra	-12.5478
▁Musee	-12.548
▁Fame	-12.5483
▁銉	-12.5485
▁bazaar	-12.5486
▁Alexis	-12.5487
▁usable	-12.5488
▁gambler	-12.5488
▁coz	-12.5491
▁stronger	-12.5492
break	-12.5493
▁excellently	-12.5495
▁contain	-12.5495
oon	-12.5498
nn	-12.5499
outdoor	-12.5501
▁planner	-12.5502
Club	-12.5504
▁Jordan	-12.5509
▁bbq	-12.5509
▁trolly	-12.5509
▁50'	-12.5511
▁marriott	-12.5512
▁lip	-12.5517
▁latte	-12.5517
▁vendor	-12.5517
▁maintaining	-12.5518
▁pepper	-12.5518
rick	-12.5519
▁Unbelievable	-12.552
▁convienient	-12.552
▁Indigo	-12.552
▁gaslamp	-12.552
hy	-12.5522
▁text	-12.5523
▁Low	-12.5525
▁toliet	-12.5525
cio	-12.5526
▁Along	-12.5528
▁quibble	-12.5529
▁25%	-12.5532
▁Cavour	-12.5532
▁salami	-12.5532
▁SUV	-12.5532
▁Cheers	-12.5534
DO	-12.5537
▁inconsiderate	-12.5543
▁GET	-12.5547
▁ja	-12.5548
▁tire	-12.5548
▁lick	-12.5552
▁promo	-12.5553
apart	-12.5554
▁hindsight	-12.5555
▁neutral	-12.5555
▁absolutly	-12.5555
rock	-12.5556
stand	-12.5557
▁$89	-12.5564
▁Leidseplein	-12.5567
▁disorganized	-12.5567
▁Balinese	-12.5567
rea	-12.557
▁Tv	-12.5571
▁Andrea	-12.5571
▁£	-12.5572
▁Mart	-12.5573
▁sta	-12.5573
▁lend	-12.5574
beer	-12.5574
▁bloody	-12.5575
▁veranda	-12.5578
▁imagination	-12.5578
▁forms	-12.5579
ob	-12.558
▁exceptions	-12.5584
▁Bella	-12.5585
▁Bi	-12.5589
▁Felix	-12.559
▁Sandals	-12.559
ake	-12.559
▁OFF	-12.5592
▁deserts	-12.5594
sit	-12.56
▁bargains	-12.56
boy	-12.56
▁transaction	-12.5601
€¢	-12.5601
▁atleast	-12.5606
▁99	-12.5608
pack	-12.561
▁scrub	-12.5613
▁NIGHT	-12.5613
▁Men	-12.5616
▁Surf	-12.5617
▁photographs	-12.5619
▁Reading	-12.5621
▁African	-12.5622
▁canopy	-12.5625
▁Deuce	-12.5625
▁Jesus	-12.5625
case	-12.5627
▁tuna	-12.5632
▁Brandenburg	-12.5635
▁FABULOUS	-12.5636
▁Portofino	-12.5636
▁Indonesian	-12.5637
▁Included	-12.5637
cl	-12.5642
▁Breezes	-12.5642
▁Ruth	-12.5643
▁5.30	-12.5648
▁abandoned	-12.5649
52	-12.5653
ili	-12.5653
ome	-12.5655
▁Oak	-12.5659
▁47	-12.5659
▁Been	-12.5659
▁repellent	-12.566
▁AVOID	-12.566
▁Won	-12.5665
▁cycle	-12.5665
una	-12.5666
French	-12.5666
▁Marriotts	-12.5667
▁backyard	-12.567
▁Ge	-12.5672
▁promotional	-12.5673
(12	-12.5673
/7	-12.5673
▁Wa	-12.5673
▁rushing	-12.5673
▁BW	-12.5676
definitely	-12.5678
▁Ground	-12.5681
▁Amtrak	-12.5683
▁intimidating	-12.5683
▁introduction	-12.5683
▁keycard	-12.5684
▁Av	-12.5686
▁recommand	-12.5695
▁homes	-12.5695
▁BB	-12.5695
▁waterbus	-12.5695
pper	-12.5696
ire	-12.5696
▁$1.50	-12.5697
▁spilled	-12.5698
need	-12.57
wait	-12.5705
▁Duke	-12.5706
▁browns	-12.5709
▁sincerely	-12.5711
▁surfaces	-12.5712
▁lotions	-12.5714
▁arent	-12.5716
2.00	-12.5716
▁Rain	-12.5717
▁Lafayette	-12.5718
▁ch	-12.5718
▁Richard	-12.572
stayed	-12.5722
▁Ser	-12.5724
▁Reve	-12.5726
tine	-12.5727
▁indicating	-12.573
▁petty	-12.5731
▁solely	-12.5732
▁hammering	-12.5732
▁rays	-12.5732
▁eastern	-12.5733
▁outgoing	-12.5734
▁pages	-12.5735
tely	-12.5737
June	-12.5737
▁Jane	-12.5737
▁mats	-12.574
▁snobby	-12.5742
/09	-12.5746
▁bc	-12.5746
▁attracted	-12.5747
▁Bit	-12.5747
▁Rates	-12.575
▁seamless	-12.5751
▁serenity	-12.5753
▁naked	-12.5753
▁Residenza	-12.5754
▁intense	-12.5754
▁Russian	-12.5754
▁$85	-12.5754
▁inconveniences	-12.5755
▁loading	-12.5756
here	-12.5757
ison	-12.576
cial	-12.5761
▁Wave	-12.5762
▁clever	-12.5763
▁ref	-12.5763
▁runway	-12.5764
cut	-12.5765
▁conditioners	-12.5773
▁Asiana	-12.5775
▁chandelier	-12.5776
▁behaviour	-12.5777
▁alcove	-12.5778
▁yourselves	-12.5779
▁delux	-12.5785
▁attendees	-12.5786
▁orientation	-12.5789
▁Howard	-12.579
▁OUR	-12.5792
▁Classic	-12.5792
▁Didnt	-12.5794
▁Until	-12.5797
berg	-12.5798
▁horses	-12.5799
▁bicycle	-12.5799
▁WOULD	-12.5801
▁ash	-12.5802
▁capable	-12.5803
She	-12.5805
▁reminder	-12.5809
eh	-12.581
▁lifeguard	-12.5812
▁Sirkeci	-12.5812
hu	-12.5814
▁passable	-12.5815
▁allergy	-12.5824
▁confidence	-12.5824
▁exceed	-12.5829
typical	-12.5829
▁8)	-12.583
▁drinker	-12.583
ress	-12.5832
▁rotten	-12.5836
▁trapped	-12.5836
▁Taj	-12.5837
▁associate	-12.584
▁360	-12.5841
▁Nu	-12.5842
▁$23	-12.5848
▁farthest	-12.5848
▁reflects	-12.5848
▁toddlers	-12.585
▁Run	-12.5853
LO	-12.5853
▁performed	-12.5853
▁Arno	-12.5854
Other	-12.5854
▁roses	-12.5857
TO	-12.5862
normal	-12.5865
rn	-12.5872
▁permitted	-12.5872
▁($3	-12.5874
▁20'	-12.5878
olo	-12.5879
lol	-12.5884
▁investment	-12.5885
▁Pillows	-12.5888
▁Reach	-12.5888
▁Cra	-12.5891
/1	-12.5892
▁Party	-12.5894
▁beautifull	-12.5894
▁Institute	-12.5896
▁horrified	-12.5896
▁imaginable	-12.5896
▁handing	-12.5897
▁RO	-12.5898
▁stark	-12.5898
▁Perfectly	-12.5899
▁Deal	-12.59
▁nightcap	-12.5902
▁Sc	-12.5903
lon	-12.5905
ound	-12.5908
▁scratchy	-12.591
▁border	-12.5911
▁......	-12.5913
▁ultimate	-12.5917
°	-12.592
▁Pulitzer	-12.592
▁enquired	-12.5924
▁ke	-12.593
▁mango	-12.5931
▁cobblestone	-12.5932
▁$9.95	-12.5932
▁hotdogs	-12.5935
▁spin	-12.5936
▁Lisa	-12.5939
1)	-12.594
ila	-12.5942
NY	-12.5942
▁Alaska	-12.5942
▁Barberini	-12.5944
▁Michelin	-12.5946
▁Italians	-12.5947
ene	-12.5951
▁wheels	-12.5951
▁Roger	-12.5952
▁(!)	-12.5953
▁Cypress	-12.5956
▁unattended	-12.5956
AND	-12.5956
▁chatted	-12.5957
▁Corte	-12.5957
▁Manor	-12.596
lock	-12.5962
▁cana	-12.5962
sal	-12.5963
maid	-12.5963
▁Victorian	-12.5966
▁20-	-12.5967
mber	-12.5967
▁Couple	-12.5968
▁resting	-12.5968
▁RIGHT	-12.5968
▁represents	-12.5971
▁claiming	-12.5977
touristy	-12.5978
known	-12.5979
▁Tan	-12.5979
▁configuration	-12.598
▁Cambridge	-12.598
▁domestic	-12.598
▁remarkably	-12.598
▁drip	-12.598
ature	-12.598
▁buggy	-12.598
lights	-12.5981
▁Cava	-12.5981
ei	-12.5981
▁700	-12.5984
▁spreads	-12.5985
▁musical	-12.5988
▁bothers	-12.5989
▁lugging	-12.5992
▁april	-12.5992
▁Convento	-12.5995
▁$27	-12.6
Ca	-12.6
▁Tuscan	-12.6002
▁permanent	-12.6002
▁Passeig	-12.6004
▁bliss	-12.6007
▁brave	-12.6008
ese	-12.6013
between	-12.6013
▁Memphis	-12.6016
▁Negative	-12.6016
▁diff	-12.6017
keeping	-12.6018
vers	-12.6026
▁Traveling	-12.6028
▁Sacre	-12.6028
▁hourly	-12.6031
▁Rail	-12.6031
lor	-12.6033
▁investigate	-12.6033
▁Mel	-12.6034
▁49	-12.6038
▁accomadating	-12.604
▁noisier	-12.604
▁swept	-12.604
▁sydney	-12.604
▁slammed	-12.604
▁hula	-12.6041
----	-12.6041
▁op	-12.6042
▁excuses	-12.6046
▁latch	-12.6047
▁glitz	-12.605
▁Pri	-12.605
▁varying	-12.6051
▁Montmartre	-12.6052
▁TERRIBLE	-12.6052
▁Ottoman	-12.6052
▁ashtray	-12.6053
store	-12.6053
▁fixture	-12.6053
▁Early	-12.6055
............	-12.6058
▁Pot	-12.6058
▁tremendously	-12.6059
ata	-12.6059
▁unpacking	-12.6061
▁briefly	-12.6063
▁blender	-12.6064
▁odour	-12.6065
▁interconnecting	-12.6065
▁cupboards	-12.607
▁dei	-12.6073
▁clearing	-12.6075
▁Kauai	-12.6077
▁canapes	-12.6077
▁hats	-12.6077
▁Money	-12.6077
▁flavour	-12.6078
▁accessories	-12.6078
▁shortcomings	-12.6079
▁offensive	-12.608
foot	-12.6084
▁ge	-12.6086
(18	-12.6087
▁rm	-12.6089
▁automated	-12.6089
▁sympathetic	-12.6089
▁housing	-12.6089
▁fancier	-12.6089
▁Ladies	-12.609
▁requirement	-12.6091
▁wil	-12.6091
▁AS	-12.6096
using	-12.6097
strasse	-12.6099
▁jo	-12.6099
▁tu	-12.6101
▁aloof	-12.6101
▁dragged	-12.6101
ua	-12.6102
▁presumably	-12.6102
▁folk	-12.6102
▁problematic	-12.6104
▁crumbs	-12.6109
▁UP	-12.6109
▁OH	-12.6112
▁PLUS	-12.6113
▁Nine	-12.6114
▁mice	-12.6115
love	-12.6115
▁container	-12.6115
82	-12.6117
rail	-12.6118
▁guessed	-12.6125
▁featuring	-12.6126
▁Brian	-12.6127
▁btw	-12.6128
▁partition	-12.6129
▁comb	-12.6132
▁$21	-12.6133
▁joints	-12.6137
▁Sutton	-12.6138
▁Cheesecake	-12.6138
▁commission	-12.6138
gym	-12.6138
chair	-12.6138
▁fridges	-12.6141
▁jog	-12.6143
▁eatery	-12.6143
▁wider	-12.6145
▁stare	-12.6148
mails	-12.615
▁Shows	-12.6151
▁greets	-12.6152
▁Ru	-12.6155
lined	-12.6155
/04	-12.6156
ddle	-12.6164
▁bur	-12.6164
▁Conti	-12.6168
km	-12.6169
▁lid	-12.6169
mor	-12.6171
found	-12.6172
boat	-12.6173
▁containers	-12.6175
▁AUD	-12.6177
▁haha	-12.6178
▁noice	-12.6183
▁grow	-12.6185
▁Yountville	-12.6187
▁condescending	-12.6187
▁extravagant	-12.6187
▁Rooftop	-12.6187
▁lagoons	-12.6188
ws	-12.6189
▁Iron	-12.6193
▁soundproofed	-12.6195
▁Taco	-12.6196
▁Grille	-12.6196
▁Pioneer	-12.6199
▁venturing	-12.6199
▁grabbing	-12.62
▁granddaughter	-12.62
▁Sox	-12.6202
▁specify	-12.6203
▁dispute	-12.6204
▁horn	-12.6205
▁Camden	-12.6212
▁Russell	-12.6212
▁command	-12.6213
▁ticked	-12.6215
▁obliged	-12.6215
▁30'	-12.6217
▁concerts	-12.6217
▁doubts	-12.6218
flat	-12.6218
▁forgetting	-12.6218
▁patch	-12.6221
designed	-12.6221
▁occassion	-12.6222
▁clouds	-12.6223
ines	-12.6223
▁communicating	-12.6224
▁hopped	-12.6225
▁Trade	-12.6226
▁ci	-12.6229
▁Complete	-12.6236
▁Windsor	-12.6236
▁glitches	-12.6238
▁Orient	-12.6238
▁packaged	-12.6239
▁Lei	-12.6239
plo	-12.6243
RA	-12.6245
▁inc	-12.6248
▁removing	-12.6249
▁Swiss	-12.6249
nic	-12.6249
▁$25.00	-12.6249
▁OVERALL	-12.625
▁redecorated	-12.625
▁serviceable	-12.6253
LI	-12.6255
issue	-12.6256
▁43	-12.6258
▁#4	-12.6258
▁graduation	-12.6261
▁drained	-12.6265
▁exhausting	-12.6267
speaking	-12.6269
tired	-12.6269
lovely	-12.6271
▁schedules	-12.6273
▁profit	-12.6273
▁foliage	-12.6273
▁Construction	-12.6274
▁agreement	-12.6274
▁substandard	-12.6274
▁noodles	-12.6275
iti	-12.6278
▁escalators	-12.6282
▁bal	-12.6282
▁attack	-12.6283
-18	-12.6284
▁Mansion	-12.6286
▁130	-12.6288
▁bomb	-12.6293
▁Gar	-12.6295
vation	-12.6296
▁Number	-12.6298
▁ordeal	-12.6302
▁Est	-12.6306
tions	-12.6306
▁fame	-12.6309
▁substance	-12.6311
▁kong	-12.6311
▁panic	-12.6313
San	-12.6314
bag	-12.6316
51	-12.6317
▁eats	-12.6318
VE	-12.6322
▁boarded	-12.6322
▁unusable	-12.6323
▁Sunscape	-12.6323
▁lockers	-12.6323
▁Grace	-12.6323
▁sunglasses	-12.6324
/6	-12.6324
▁Johnson	-12.6325
▁elliptical	-12.6325
▁technically	-12.6325
▁stairway	-12.6326
March	-12.6328
▁keyboard	-12.6328
▁relocated	-12.633
▁programs	-12.633
▁qui	-12.633
▁drinkers	-12.6334
▁roulette	-12.6336
▁Drury	-12.6336
▁unaware	-12.6336
1/2	-12.6336
▁spoon	-12.6339
ump	-12.634
▁gray	-12.634
▁snap	-12.6341
watch	-12.6342
▁Wind	-12.6342
▁140	-12.6344
▁Par	-12.6347
▁Halloween	-12.6348
▁Rude	-12.6349
▁€1	-12.635
▁$50.00	-12.6351
▁gin	-12.6351
▁riu	-12.6353
▁aroma	-12.6357
▁compares	-12.636
▁THANK	-12.636
▁haggle	-12.6361
▁darling	-12.6361
▁MORE	-12.6361
▁june	-12.6361
eu	-12.6366
cap	-12.6369
▁gazebo	-12.6374
maker	-12.6374
▁locale	-12.6375
month	-12.6376
▁pinch	-12.6378
4)	-12.6379
tech	-12.6382
ering	-12.6382
▁remedied	-12.6386
tur	-12.6387
▁Lamp	-12.6389
▁Es	-12.6393
apparently	-12.6394
▁splurged	-12.6398
▁RUDE	-12.6398
▁appalled	-12.6398
▁Jorge	-12.6398
▁Dua	-12.6401
▁Macys	-12.6406
▁Earl	-12.6407
▁comedy	-12.641
▁Tres	-12.6411
▁Toiletries	-12.6411
▁forewarned	-12.6411
AN	-12.6413
▁element	-12.6414
▁str	-12.6418
▁airplanes	-12.6421
▁omlettes	-12.6424
▁artists	-12.6425
▁MC	-12.6425
▁Downside	-12.6427
▁z	-12.6433
▁itchy	-12.6436
▁frayed	-12.6436
▁Greek	-12.6436
▁Manuel	-12.6436
▁consierge	-12.6436
▁Kissimmee	-12.6436
▁CON	-12.6437
▁extortionate	-12.6438
die	-12.6438
▁cava	-12.6443
▁Diagonal	-12.6449
▁Conclusion	-12.6449
!!!!!!!!	-12.6451
▁TOO	-12.6452
ulate	-12.6453
▁techno	-12.6453
?!?	-12.6457
▁Holidays	-12.6459
▁punta	-12.6462
▁parlor	-12.6462
▁fuzzy	-12.6462
▁monuments	-12.6463
▁Cabs	-12.6463
▁76	-12.6469
▁Ipod	-12.6471
▁Argonaut	-12.6474
▁Conveniently	-12.6482
▁Domingo	-12.6487
▁ceramic	-12.6487
▁horrific	-12.6487
▁plague	-12.6487
▁According	-12.6487
▁instructed	-12.6488
▁processed	-12.6488
▁personel	-12.6488
cious	-12.6489
▁Rib	-12.6493
▁priceless	-12.6494
▁listing	-12.6497
▁Gem	-12.6499
▁EVERYONE	-12.6499
(2	-12.6502
▁10.00	-12.6502
hal	-12.6503
▁bedded	-12.6503
▁disappear	-12.6504
▁strangely	-12.6505
▁THEhotel	-12.6506
road	-12.6507
▁hadnt	-12.6507
▁olds	-12.6507
▁hardest	-12.6512
ON	-12.6515
hol	-12.6515
sun	-12.6516
▁displays	-12.6521
▁Condo	-12.6522
▁NOTE	-12.6523
▁soundly	-12.6524
▁Rouge	-12.6525
▁fry	-12.6526
ivi	-12.6531
▁lizards	-12.6534
short	-12.6535
▁Mill	-12.6536
bread	-12.6537
▁recomended	-12.6538
▁veiw	-12.6538
▁detector	-12.6538
ust	-12.6538
▁directing	-12.6539
▁cage	-12.654
▁stinks	-12.6541
▁behaved	-12.6542
-17	-12.6542
▁packs	-12.6548
ati	-12.6549
▁clam	-12.655
▁Sheets	-12.6553
▁Positive	-12.6555
▁litter	-12.6556
body	-12.6556
▁tidied	-12.6563
檙	-12.6563
▁hops	-12.6564
▁Checkpoint	-12.6565
▁string	-12.6569
▁bedsheets	-12.657
▁della	-12.6572
▁pun	-12.6573
▁expert	-12.6573
▁Swim	-12.6576
▁BACK	-12.6576
▁humour	-12.6576
▁temple	-12.6581
frills	-12.6584
▁necessity	-12.6589
▁ASAP	-12.6589
▁interrupted	-12.659
sel	-12.6591
▁shark	-12.6592
▁snorkle	-12.6594
▁singer	-12.6595
▁$100/	-12.6595
▁Bat	-12.6597
outs	-12.6597
▁pl	-12.6597
iff	-12.6599
bing	-12.66
kin	-12.6601
}	-12.6602
▁celebrity	-12.6602
▁laundromat	-12.6602
▁unreliable	-12.6602
▁whistles	-12.6602
▁Beautifully	-12.6602
▁$160	-12.6605
▁Receptionist	-12.6607
▁resemble	-12.6607
From	-12.661
▁fu	-12.6611
lum	-12.6612
▁Decided	-12.6615
▁yum	-12.6615
▁neon	-12.662
▁Nor	-12.6626
▁sensational	-12.6629
▁contest	-12.6632
▁Brits	-12.6635
ished	-12.6636
▁Trop	-12.6636
iki	-12.6637
▁Heaven	-12.6638
▁situ	-12.6638
▁karaoke	-12.664
▁DONT	-12.6645
▁grime	-12.6645
▁Pick	-12.6647
▁airconditioner	-12.6652
▁Presidente	-12.6653
▁Chocolate	-12.6653
▁grandeur	-12.6654
▁$110	-12.6656
▁layed	-12.6661
compared	-12.6661
▁blamed	-12.6662
▁AKL	-12.6666
▁Disappointing	-12.6666
▁Sant	-12.6669
vie	-12.667
▁attic	-12.667
▁counts	-12.6672
bor	-12.6678
▁Catamaran	-12.6679
▁Sahara	-12.6679
inch	-12.6679
▁lux	-12.6685
▁prints	-12.6689
▁Opus	-12.6692
▁snorkeled	-12.6692
▁splashing	-12.6699
-16	-12.6702
cat	-12.6702
▁lean	-12.6703
▁Penthouse	-12.6705
▁Disappointed	-12.6705
▁bellboys	-12.6706
course	-12.6707
▁downer	-12.6709
▁enabled	-12.6711
▁Pie	-12.6716
▁q	-12.6716
▁$38	-12.6718
▁Cistern	-12.6718
▁battle	-12.6718
81	-12.6723
▁jar	-12.6725
sea	-12.6728
▁afield	-12.6729
(8	-12.673
▁forecast	-12.6731
▁oz	-12.6735
los	-12.6736
▁sufficiently	-12.6736
▁roped	-12.6737
▁doughnuts	-12.6739
▁calming	-12.674
everyone	-12.674
▁spice	-12.6742
▁audible	-12.6744
▁ashamed	-12.6744
▁Er	-12.6745
visit	-12.6751
▁crafts	-12.6755
▁Might	-12.6757
▁MB	-12.6758
▁coolest	-12.6759
▁petite	-12.6759
▁recieve	-12.6762
▁Rate	-12.6769
▁Nusa	-12.677
▁Leonardo	-12.677
▁Warning	-12.677
▁Dad	-12.6772
300	-12.6772
▁whim	-12.6782
▁belief	-12.6783
▁knife	-12.6783
▁murky	-12.6783
▁Loads	-12.6783
▁bistros	-12.6784
▁woods	-12.6784
▁remotely	-12.6786
8)	-12.6787
▁Lombard	-12.6796
▁Nordstrom	-12.6796
▁positively	-12.6797
▁realistic	-12.6798
▁gar	-12.6799
▁mos	-12.6801
▁Ju	-12.6803
6.00	-12.6805
Me	-12.6806
▁qualities	-12.6809
▁Supermarket	-12.6809
five	-12.6812
▁nerve	-12.6814
ich	-12.6816
▁30%	-12.6816
▁roam	-12.6818
▁pickpockets	-12.6819
▁rea	-12.682
▁=)	-12.682
▁Thirty	-12.6822
▁orchard	-12.6822
▁Westfield	-12.6823
▁unlikely	-12.6827
gon	-12.6829
▁fantastically	-12.683
og	-12.683
Resort	-12.683
▁engineering	-12.6831
remember	-12.6833
▁subsequent	-12.6833
▁Atocha	-12.6835
▁Twice	-12.6835
▁oranges	-12.6835
▁SW	-12.6837
▁examples	-12.6838
▁Knowing	-12.6838
▁polish	-12.6841
tch	-12.6841
▁dusk	-12.6842
▁AN	-12.6845
▁Oz	-12.6846
▁lanes	-12.6847
sses	-12.6848
lier	-12.6848
▁Stamford	-12.6848
▁Euston	-12.6848
▁Albergo	-12.6848
▁Juice	-12.6848
▁VIM	-12.6849
fine	-12.685
▁Freedom	-12.6851
Note	-12.6853
▁Find	-12.6854
▁accom	-12.6858
▁Angelo	-12.6861
▁NEW	-12.6862
▁Taking	-12.6862
1.	-12.6863
(114	-12.6864
▁Rex	-12.6866
▁fears	-12.6866
▁minds	-12.6868
▁SE	-12.6869
▁hugely	-12.6871
hon	-12.6871
▁$25/	-12.6873
▁german	-12.6874
▁BLT	-12.6875
▁Fruit	-12.6875
▁graffiti	-12.6875
▁shadow	-12.6875
-19	-12.6876
charge	-12.6876
▁hottest	-12.6877
tube	-12.6879
▁buns	-12.6879
...(	-12.688
▁overbooking	-12.6884
ics	-12.6886
▁comprehensive	-12.6888
▁worldwide	-12.6889
▁NYE	-12.6893
until	-12.6894
▁Dream	-12.6894
▁Lucia	-12.69
▁Plate	-12.69
▁Mine	-12.6901
▁Napoleon	-12.6901
▁carriage	-12.6901
▁gum	-12.6901
▁Design	-12.6901
log	-12.6902
▁Museums	-12.6903
▁monkey	-12.6907
oul	-12.6908
▁RH	-12.6909
▁quietest	-12.6912
▁begging	-12.6913
bri	-12.6914
▁HVAC	-12.6914
▁Paramount	-12.6914
▁War	-12.6916
▁11.30	-12.6916
yrs	-12.6917
pl	-12.6921
▁7-10	-12.6922
renovated	-12.6922
booking	-12.6922
bble	-12.6924
ces	-12.6925
▁shelter	-12.6925
▁chicago	-12.6927
▁reduction	-12.6928
▁canyon	-12.6929
▁hu	-12.6929
▁53	-12.693
direct	-12.693
Ho	-12.6931
▁Mitte	-12.6934
cks	-12.6935
▁arena	-12.6938
▁disliked	-12.6938
▁2010,	-12.694
▁Fullerton	-12.6941
▁supplement	-12.6941
▁reno	-12.6941
state	-12.6947
9)	-12.6951
▁september	-12.6954
▁Yonge	-12.6954
▁tariff	-12.6954
▁eleven	-12.6957
▁invite	-12.6961
aking	-12.6961
▁Thorough	-12.6964
▁freedom	-12.6968
-22	-12.6968
▁$2.50	-12.6968
▁Tipping	-12.6969
rage	-12.697
▁<	-12.6971
▁docks	-12.6972
NOT	-12.6973
▁sting	-12.6975
▁Cap	-12.6976
▁($4	-12.6977
▁cd	-12.698
▁disappointments	-12.6981
▁Holland	-12.6981
▁employ	-12.6981
▁Edward	-12.6981
▁readers	-12.6983
▁Gal	-12.6986
▁vacationed	-12.6986
DE	-12.6986
▁soiled	-12.6987
▁treating	-12.6991
▁operates	-12.6992
▁Admittedly	-12.6994
▁Police	-12.6994
▁settling	-12.6994
/8	-12.6998
▁Start	-12.7
Or	-12.7001
Entertainment	-12.7003
▁REAL	-12.7003
rating	-12.7007
▁choc	-12.7008
▁infact	-12.7008
▁Hiltons	-12.7013
▁bracelets	-12.7014
▁backside	-12.7015
ior	-12.7015
spect	-12.7017
▁yearly	-12.7018
▁tooth	-12.7018
(22	-12.7018
▁sudden	-12.7018
▁convinient	-12.7021
▁breakfest	-12.7021
▁inspired	-12.7023
cer	-12.7026
▁dismal	-12.7027
▁retired	-12.7027
outside	-12.7028
▁belt	-12.7029
ually	-12.7033
▁Mayakoba	-12.7034
loud	-12.7035
▁tier	-12.7037
▁shave	-12.7043
▁Natural	-12.7045
▁stunned	-12.7048
▁Glass	-12.7048
▁subtle	-12.7048
▁Does	-12.7049
▁Miss	-12.7049
ule	-12.7051
rah	-12.7053
▁spill	-12.7054
ition	-12.7054
▁whiske	-12.7054
▁Cuban	-12.7058
▁Away	-12.7061
▁Contrary	-12.7061
▁neatly	-12.7064
▁2/3	-12.7066
▁trans	-12.7066
chairs	-12.7067
▁razor	-12.7068
▁Eating	-12.7069
ood	-12.7069
▁$1000	-12.707
▁starwood	-12.707
▁faucets	-12.707
-13	-12.7073
▁Colloseum	-12.7074
▁identify	-12.7074
▁servicing	-12.7074
▁appetite	-12.7075
deli	-12.7076
adult	-12.7077
▁whi	-12.7078
▁sneak	-12.708
decorated	-12.7082
▁Laura	-12.7085
ker	-12.7086
▁glamour	-12.7087
▁Statue	-12.7088
▁HDTV	-12.7088
trained	-12.7089
▁masses	-12.709
▁kiosks	-12.7092
say	-12.7095
▁suffering	-12.7097
ght	-12.71
▁operators	-12.71
▁RECOMMEND	-12.7101
▁cornflakes	-12.7101
toast	-12.7104
▁bri	-12.7105
▁teeny	-12.7105
▁gathered	-12.7107
▁discovering	-12.7108
minded	-12.7109
▁attracts	-12.711
▁gambled	-12.7114
▁jelly	-12.7115
til	-12.7115
▁Logan	-12.7115
▁jogging	-12.7116
▁Steves	-12.7118
/30	-12.7121
▁heaps	-12.7125
▁tro	-12.7127
▁Limited	-12.7128
▁bre	-12.7131
▁RC	-12.7131
▁warmed	-12.7133
▁Oceana	-12.7136
April	-12.7137
glass	-12.7138
▁Ce	-12.7138
▁queuing	-12.7142
▁scruffy	-12.7142
▁Donuts	-12.7142
PE	-12.7144
▁luxe	-12.7146
▁Team	-12.7147
▁exited	-12.7148
Spa	-12.715
▁dispensers	-12.7152
form	-12.7153
▁absolutley	-12.7155
▁embarrassing	-12.7155
▁hygiene	-12.7155
▁unfailingly	-12.7155
▁coco	-12.7156
▁Potsdamer	-12.7156
▁dept	-12.7157
▁Gabi	-12.7157
west	-12.7158
▁Africa	-12.7161
▁chapel	-12.7162
▁Fu	-12.7162
▁Outlet	-12.7163
▁Director	-12.7164
afternoon	-12.7164
▁Coral	-12.7166
▁Westgate	-12.717
▁Ponce	-12.717
▁Hula	-12.7171
ante	-12.7172
▁recover	-12.7173
▁meantime	-12.7174
▁counting	-12.7177
refundable	-12.7178
▁absurd	-12.7179
snacks	-12.718
▁pc	-12.718
▁cancun	-12.7183
damm	-12.7183
▁Ki	-12.7183
wer	-12.7185
▁upcoming	-12.7186
▁severely	-12.7186
scape	-12.7186
▁Min	-12.7188
▁Mad	-12.7189
▁appropriately	-12.7193
ool	-12.7193
▁bubbly	-12.7196
▁Originally	-12.7197
▁66	-12.72
ux	-12.7203
▁Sweet	-12.7205
▁Keys	-12.7206
▁JUST	-12.721
▁statue	-12.7212
▁takeaway	-12.7214
fantastic	-12.7219
▁sm	-12.7222
tom	-12.7222
▁teach	-12.7223
ele	-12.7226
ization	-12.7227
liness	-12.723
▁Dog	-12.723
▁din	-12.7231
care	-12.7231
▁mistaken	-12.7234
esp	-12.7237
▁hyatt	-12.7237
▁striking	-12.7237
▁cheesecake	-12.7241
▁darkness	-12.7242
Best	-12.7242
pec	-12.7242
▁renovate	-12.7244
▁indulge	-12.7244
sink	-12.7245
▁br	-12.7245
3.00	-12.7246
▁por	-12.7248
▁stray	-12.7248
▁Hubby	-12.7251
▁KBH	-12.7251
▁programme	-12.7252
▁脿	-12.7252
▁melted	-12.7255
▁reporting	-12.7257
▁partners	-12.7257
/20	-12.7259
▁arrivals	-12.7259
inc	-12.726
▁anticipate	-12.726
ular	-12.7261
▁specified	-12.7265
▁swap	-12.7265
fu	-12.7266
▁Sears	-12.7268
▁Pop	-12.7268
▁bro	-12.7268
complete	-12.7271
suites	-12.7272
kan	-12.7275
▁Smith	-12.7278
▁Lets	-12.7281
▁fork	-12.7282
▁Historic	-12.7282
▁acting	-12.7282
▁entertainers	-12.7283
UL	-12.7283
▁boom	-12.7284
▁stir	-12.7285
gie	-12.7285
▁aid	-12.7287
antly	-12.7291
▁prevented	-12.7291
▁coins	-12.73
▁pole	-12.73
▁tent	-12.7302
▁Amalfi	-12.7306
▁Lupita	-12.7306
▁puddle	-12.7306
▁purple	-12.7306
▁Saona	-12.7306
▁Sitting	-12.7306
▁vanilla	-12.7306
▁hiring	-12.7306
▁Private	-12.7306
▁#5	-12.7307
▁sticker	-12.7307
▁sch	-12.7308
▁remembering	-12.7312
dirty	-12.7315
▁blasting	-12.7316
▁$36	-12.7318
▁inferior	-12.7319
▁Pl	-12.7321
▁elevated	-12.7321
▁Oceanfront	-12.7322
▁Thats	-12.7329
▁Lighting	-12.7333
▁judging	-12.7333
▁Pedro	-12.7333
▁Bike	-12.7333
▁angel	-12.7336
▁Muse	-12.7336
mu	-12.7337
▁painfully	-12.7337
ros	-12.734
▁chan	-12.7341
▁accessing	-12.7342
▁armchair	-12.7342
bay	-12.7346
▁Zealand	-12.7347
▁adaptor	-12.7347
▁chatty	-12.7348
▁Azul	-12.7348
▁regretted	-12.7349
▁percent	-12.7351
▁bones	-12.7353
▁Colon	-12.7354
▁grain	-12.7354
▁formed	-12.7355
zy	-12.7355
▁loving	-12.7359
▁gut	-12.736
keep	-12.736
锛	-12.7361
oeuvres	-12.7361
▁flexibility	-12.7361
▁multitude	-12.7361
▁overpowering	-12.7361
▁experiance	-12.7361
rge	-12.7363
▁Paia	-12.7364
▁les	-12.7365
▁rinse	-12.7367
Mi	-12.7368
his	-12.7372
dic	-12.7372
tti	-12.7372
▁highways	-12.7373
NS	-12.7374
▁figuring	-12.7375
▁born	-12.7376
▁aging	-12.7381
▁Matt	-12.7386
	-12.7389
▁Tahiti	-12.7389
▁disposal	-12.7389
▁remedy	-12.7389
▁FUN	-12.7389
▁audio	-12.7389
▁constructed	-12.739
▁04	-12.7391
▁Inclusive	-12.7392
sie	-12.7394
▁sweating	-12.7398
▁advertisement	-12.7399
▁continuous	-12.74
▁Bamboo	-12.7402
▁Kevin	-12.7403
lli	-12.7405
vor	-12.7407
▁waist	-12.7407
AT	-12.7411
▁Santo	-12.7411
▁marginal	-12.7414
▁junction	-12.7416
▁Jerry	-12.7417
▁pissed	-12.7417
▁squeaky	-12.7417
▁carpeted	-12.7417
▁Discovery	-12.7418
▁PO	-12.7419
▁factors	-12.7419
Euros	-12.7419
▁mojitos	-12.742
▁Sants	-12.7422
KE	-12.7423
stone	-12.7424
ional	-12.7426
▁frontdesk	-12.743
▁Hair	-12.743
▁Ralph	-12.743
▁scream	-12.7432
unk	-12.7435
▁taco	-12.744
▁whistle	-12.7444
▁Akumal	-12.7444
▁Halekulani	-12.7444
▁dubious	-12.7444
▁uncommon	-12.7445
▁sandbags	-12.7445
east	-12.7447
▁Clark	-12.7451
ough	-12.7453
lot	-12.7453
▁peanut	-12.7453
▁Blues	-12.7453
Orsay	-12.7454
Its	-12.7459
▁stainless	-12.746
▁roman	-12.7462
▁beige	-12.7462
▁doll	-12.7463
▁Bond	-12.7466
▁Bahama	-12.7468
▁Interesting	-12.747
▁Falls	-12.7471
▁Fee	-12.7472
▁Pablo	-12.7472
▁reminiscent	-12.7472
these	-12.7472
▁broad	-12.7473
▁barking	-12.7474
▁manger	-12.7475
▁matches	-12.7478
Blue	-12.7482
budget	-12.7482
tram	-12.7483
▁sculptures	-12.7483
▁joking	-12.7484
▁dealer	-12.7484
stic	-12.7486
▁Oyster	-12.7486
▁misfortune	-12.7486
▁legal	-12.7487
▁breezes	-12.7488
gli	-12.7489
▁Julio	-12.7489
▁Blu	-12.7491
▁nestle	-12.7492
▁Versailles	-12.7492
▁har	-12.7496
▁dia	-12.7499
▁Transport	-12.75
▁Mia	-12.7501
▁Wendy	-12.7501
▁expresso	-12.7505
▁Yorker	-12.7508
▁spell	-12.751
Had	-12.751
ingly	-12.7511
▁navigating	-12.7514
▁enclosure	-12.7514
▁sw	-12.7516
▁Lady	-12.7518
▁deeper	-12.7519
bur	-12.7519
▁swamp	-12.752
sign	-12.7522
jet	-12.7526
fee	-12.7526
tax	-12.7528
▁uncomfortably	-12.7528
檝	-12.7528
▁Andrew	-12.7529
▁$2.00	-12.7529
▁Bongo	-12.7529
▁yell	-12.753
▁surfers	-12.7533
different	-12.7534
▁Mal	-12.7534
▁stacked	-12.7534
▁topper	-12.7537
balcony	-12.7538
(5	-12.7538
ues	-12.7538
▁miniscule	-12.7542
▁gondolas	-12.7543
ean	-12.7544
▁Dunkin	-12.7549
▁presentations	-12.7552
▁Starbuck	-12.7553
▁racket	-12.7554
▁eiffel	-12.7557
▁overbearing	-12.7557
▁fresco	-12.7557
▁unwelcoming	-12.7557
▁Dom	-12.7557
▁Atrium	-12.7558
GA	-12.7561
▁42"	-12.7564
▁thr	-12.7565
▁ambulance	-12.7567
▁runners	-12.7567
▁nutshell	-12.7571
▁Channel	-12.7571
▁miniature	-12.7573
AS	-12.7574
▁Awful	-12.7574
▁aim	-12.7574
▁countryside	-12.7575
▁banged	-12.7576
▁Tri	-12.7577
MO	-12.7578
len	-12.7579
downtown	-12.7581
▁vice	-12.7582
▁hol	-12.7583
plan	-12.7584
▁melt	-12.7584
▁tenders	-12.7584
▁Luquillo	-12.7585
▁atrocious	-12.7585
▁method	-12.7585
▁represent	-12.7586
▁$180	-12.7587
mba	-12.7589
▁spraying	-12.7591
▁Dave	-12.7593
▁Crescent	-12.7599
▁cinnamon	-12.7599
▁invoice	-12.7599
▁Gateway	-12.76
▁uniformly	-12.7601
ately	-12.7602
ils	-12.7606
▁liquors	-12.761
▁unlock	-12.761
▁pale	-12.7612
oy	-12.7612
▁Manhatten	-12.7613
based	-12.7614
▁bla	-12.7614
▁mansion	-12.7616
▁benches	-12.7616
▁distances	-12.7616
▁bumping	-12.7618
▁Phone	-12.762
▁notify	-12.7621
▁garages	-12.7622
▁fav	-12.7623
▁Muni	-12.7625
boo	-12.7625
▁Biggest	-12.7627
▁invaluable	-12.7627
▁scar	-12.7627
▁Katrina	-12.7628
▁watersports	-12.7632
Hare	-12.7633
▁Col	-12.7639
▁Mercedes	-12.7642
▁Monteleone	-12.7642
▁Jimmy	-12.7643
▁overflow	-12.7648
An	-12.7648
▁annoy	-12.7649
▁STAR	-12.765
▁generator	-12.7656
▁FULL	-12.7656
▁Spagna	-12.7656
▁dÃ	-12.7657
▁furious	-12.7658
▁Block	-12.7658
▁tolerate	-12.7663
EUR	-12.7663
▁pays	-12.7664
Disney	-12.7665
noise	-12.7667
▁witness	-12.7667
▁$42	-12.7668
evening	-12.7672
▁bu	-12.7672
▁cried	-12.7674
▁privately	-12.7674
▁Bryant	-12.7676
burg	-12.7677
▁favourites	-12.768
▁racks	-12.7684
▁sole	-12.7684
▁rope	-12.7684
▁memorial	-12.7684
▁ban	-12.7684
▁recomment	-12.7685
▁raft	-12.7685
▁brothers	-12.7686
▁beams	-12.7687
▁straighten	-12.7688
▁priv	-12.7689
▁Leave	-12.7689
ME	-12.769
friend	-12.769
▁trusted	-12.7693
▁doubled	-12.7694
action	-12.7694
▁companions	-12.7696
▁adjustment	-12.7696
tant	-12.7697
▁disposable	-12.7699
▁Savoy	-12.7699
▁approaching	-12.7701
▁Bahn	-12.7702
▁$200/	-12.7706
▁dumb	-12.7706
ius	-12.7708
gre	-12.7708
▁warrant	-12.7709
▁delights	-12.771
▁Buckingham	-12.7713
▁Carnegie	-12.7713
aff	-12.7713
▁manicure	-12.772
-24	-12.7726
▁Trader	-12.7726
▁alas	-12.7726
▁patiently	-12.7726
zzo	-12.7727
▁Ami	-12.7727
▁Concorde	-12.7727
▁EVERYWHERE	-12.7727
▁relied	-12.7727
▁resonable	-12.7728
Br	-12.7728
$2	-12.773
▁pose	-12.773
▁Bedding	-12.773
▁illness	-12.773
comp	-12.773
▁Mixed	-12.773
gua	-12.7731
vent	-12.7732
went	-12.7733
ori	-12.7734
RO	-12.7736
rum	-12.7739
▁sir	-12.7741
▁inflated	-12.7742
▁anyhow	-12.7743
▁Ambar	-12.7744
ye	-12.7749
▁Tub	-12.7751
▁6-8	-12.7751
zed	-12.7752
▁booklet	-12.7753
▁sto	-12.7753
▁Bellman	-12.7757
quest	-12.7759
▁pressured	-12.7763
▁1970	-12.7765
▁ni	-12.7766
▁kinks	-12.7766
▁DVDs	-12.7768
▁Horn	-12.777
▁dramatic	-12.777
▁AFTER	-12.7771
▁definition	-12.7771
▁inappropriate	-12.7772
▁Returned	-12.7773
▁starter	-12.7773
▁WERE	-12.7778
▁willingness	-12.7781
▁bearing	-12.7781
▁Pet	-12.7783
als	-12.7785
▁BEFORE	-12.7785
▁league	-12.7785
term	-12.7786
rather	-12.7792
tv	-12.7794
▁Gave	-12.7796
▁underwater	-12.7796
▁mirrored	-12.7797
▁dubai	-12.7799
▁curteous	-12.7799
▁applies	-12.78
▁instructor	-12.78
▁slap	-12.78
▁scum	-12.7801
▁gang	-12.7801
▁danger	-12.7802
▁noone	-12.7802
▁clocks	-12.7802
▁feb	-12.7802
▁est	-12.7803
▁Tor	-12.7804
▁Puck	-12.7804
▁Thurs	-12.7808
▁snag	-12.7809
▁hosting	-12.7809
press	-12.781
▁shuts	-12.7813
▁AWFUL	-12.7814
▁Banana	-12.7814
▁Ceasars	-12.7817
▁(25	-12.7817
▁Pack	-12.782
▁Fla	-12.7823
Please	-12.7824
putting	-12.7824
▁visa	-12.7827
▁spiral	-12.7828
▁berlin	-12.7829
▁padded	-12.7829
▁scarce	-12.783
▁mission	-12.7831
▁cho	-12.7833
▁storey	-12.7833
▁Piazzale	-12.7833
▁shooting	-12.7834
▁officer	-12.7835
▁decline	-12.7836
7.00	-12.7837
▁passage	-12.7838
▁Magical	-12.784
▁Ab	-12.7841
▁idiot	-12.7841
▁decaf	-12.7842
▁Benjamin	-12.7843
▁Bristol	-12.7843
▁guidance	-12.7843
▁Hwy	-12.7843
▁$30/	-12.7848
cro	-12.7849
iers	-12.7849
iable	-12.7851
tiny	-12.7854
▁outlook	-12.7854
▁brushed	-12.7854
▁che	-12.7856
▁Saratoga	-12.7857
▁Rodeo	-12.7857
▁Travelled	-12.7859
▁suffice	-12.7859
▁endure	-12.786
▁walker	-12.786
▁Wanted	-12.7863
▁Augustus	-12.7863
▁$49	-12.7871
▁STILL	-12.7872
▁slim	-12.7872
▁Reasonably	-12.7872
▁$39	-12.7872
soft	-12.7872
▁duct	-12.7873
▁midweek	-12.7875
▁Gen	-12.7875
▁wardrobes	-12.7877
4.00	-12.7879
▁pur	-12.7883
ATION	-12.7884
▁Mongkok	-12.7887
▁december	-12.7887
▁rarity	-12.7887
▁Hopkins	-12.7887
▁styling	-12.7887
▁Snorkeling	-12.7888
▁CC	-12.7892
yet	-12.7895
looked	-12.7896
▁Ber	-12.7896
000	-12.7898
▁potentially	-12.7899
▁styled	-12.7901
▁($15	-12.7901
▁Immediately	-12.7901
▁Manchester	-12.7901
▁seventh	-12.7906
▁branded	-12.7908
▁pee	-12.7909
Th	-12.791
call	-12.7911
▁6-	-12.7914
▁coladas	-12.7916
▁Cesar	-12.7916
▁Figure	-12.7917
▁resist	-12.7919
▁groomed	-12.7919
▁download	-12.7921
▁Requested	-12.7922
cup	-12.7923
▁Hola	-12.7924
feel	-12.7925
▁cancelling	-12.7932
▁napkins	-12.7933
uction	-12.7934
▁brass	-12.7934
times	-12.7934
ather	-12.7935
].	-12.7936
▁overrun	-12.7943
▁resteraunt	-12.7943
▁quietness	-12.7944
▁Traffic	-12.7945
▁Deco	-12.7945
▁fumes	-12.7945
▁thirsty	-12.7946
lty	-12.7947
▁Peak	-12.7948
▁und	-12.7949
▁bf	-12.795
▁odds	-12.7952
yed	-12.7952
RR	-12.7952
awesome	-12.7955
▁irons	-12.7956
▁una	-12.7957
▁Fl	-12.7957
▁Traveled	-12.7958
▁stool	-12.7958
cca	-12.7959
▁(4)	-12.796
▁pane	-12.796
dra	-12.7962
▁decades	-12.7963
▁latin	-12.7966
▁printers	-12.7967
▁professionals	-12.7968
▁transported	-12.797
▁responses	-12.7972
眉	-12.7974
▁refined	-12.7974
▁Galata	-12.7975
▁musicians	-12.7975
▁hong	-12.7976
aint	-12.7977
▁countertop	-12.7978
pol	-12.7978
ric	-12.7979
cooked	-12.798
area	-12.7981
▁centres	-12.7984
▁Radio	-12.7984
▁rows	-12.7984
personal	-12.7987
**	-12.7988
▁suburbs	-12.7989
▁extraordinarily	-12.7989
▁crockery	-12.7989
▁bodies	-12.7989
▁Winter	-12.799
▁associates	-12.799
▁damper	-12.7996
▁recharge	-12.7996
▁Flight	-12.8
▁launch	-12.8
▁10/10	-12.8002
▁patios	-12.8002
▁Anthony	-12.8004
har	-12.8005
▁colourful	-12.8007
▁realizing	-12.8007
either	-12.8009
nte	-12.801
▁filtered	-12.8011
lio	-12.8011
▁starving	-12.8011
▁HA	-12.8012
▁Fin	-12.8014
igh	-12.8015
▁creamer	-12.8016
▁importance	-12.8019
▁rap	-12.8021
straat	-12.8021
▁secrets	-12.8021
yard	-12.8023
▁littered	-12.8024
▁scuff	-12.8024
ech	-12.8024
ister	-12.8026
ERS	-12.8026
▁bitter	-12.8027
▁study	-12.803
▁insulting	-12.8031
▁pancake	-12.8032
GO	-12.8033
super	-12.8034
(14	-12.8034
▁crowed	-12.8035
▁washrooms	-12.8036
workers	-12.8037
▁flown	-12.8039
bal	-12.8043
▁interfere	-12.8045
▁artist	-12.8046
▁Thompson	-12.8048
▁Wolfgang	-12.8048
▁categories	-12.8048
▁erosion	-12.8048
▁Sirenis	-12.8048
▁jerk	-12.8048
ige	-12.805
▁remarks	-12.8054
boiled	-12.8056
building	-12.8058
gers	-12.8058
grand	-12.8061
▁madrid	-12.8063
▁grandchildren	-12.8063
▁Newark	-12.8064
▁Lazy	-12.8064
ude	-12.8064
▁unreal	-12.8065
zen	-12.8066
▁Patio	-12.8075
▁unexpectedly	-12.8075
uf	-12.8077
▁Gaylord	-12.8078
▁MOST	-12.8078
▁circuit	-12.8079
▁Visa	-12.8079
▁informal	-12.8079
▁OLD	-12.808
▁juan	-12.8082
▁accounts	-12.8086
Armes	-12.8087
regular	-12.8088
fire	-12.8092
▁Bastille	-12.8093
▁Company	-12.8093
▁grandmother	-12.8093
▁Korean	-12.8094
▁omlette	-12.8096
zu	-12.8101
▁2003.	-12.8102
alcoholic	-12.8103
▁blows	-12.8105
▁statues	-12.8106
2.	-12.8107
▁Aulani	-12.8108
▁unused	-12.8109
▁promote	-12.811
▁caps	-12.8112
▁aimed	-12.8113
▁chore	-12.8113
▁2007,	-12.8118
should	-12.8118
▁stat	-12.8119
▁pads	-12.812
▁overview	-12.8121
▁hostal	-12.8121
Tip	-12.8122
▁Pennsylvania	-12.8123
▁BREAKFAST	-12.8123
▁uncrowded	-12.8123
▁Hoover	-12.8123
▁confronted	-12.8124
ox	-12.8125
▁Je	-12.8126
▁($8	-12.8128
▁rested	-12.8128
golf	-12.8134
▁terraces	-12.8135
▁engine	-12.8135
▁spider	-12.8137
▁females	-12.8137
▁DLR	-12.8138
ock	-12.8144
guests	-12.8145
▁apologise	-12.8145
▁CAD	-12.8148
▁span	-12.8149
coming	-12.8149
dor	-12.8152
▁raving	-12.8153
UN	-12.8153
▁shook	-12.8154
ured	-12.8155
Out	-12.8156
▁Pink	-12.8159
▁Marine	-12.8159
▁hints	-12.8162
▁marriage	-12.8168
▁Christian	-12.8168
▁cont	-12.8168
second	-12.8169
▁Cream	-12.8169
▁subsequently	-12.817
itive	-12.8174
▁carries	-12.8178
▁$79	-12.8179
▁Game	-12.818
▁majestic	-12.8183
▁policies	-12.8183
▁necklace	-12.8183
▁mor	-12.8183
▁uninterested	-12.8183
▁spicy	-12.8184
▁sprawling	-12.8184
dal	-12.8185
▁creates	-12.8187
ano	-12.8188
▁jug	-12.8192
cot	-12.8195
▁undoubtedly	-12.8198
▁Rosewood	-12.8198
▁Word	-12.8198
▁affiliated	-12.8199
vel	-12.82
▁fashionable	-12.8201
▁freeways	-12.8201
▁criticisms	-12.8201
Ex	-12.8204
▁object	-12.8207
chain	-12.8208
▁observations	-12.8209
sight	-12.821
▁brag	-12.821
▁Scott	-12.8211
▁loan	-12.8211
▁exits	-12.8211
▁seniors	-12.8212
▁flimsy	-12.8213
▁gluten	-12.8213
▁sponge	-12.8213
▁Popolo	-12.8213
▁annoyances	-12.8214
Di	-12.8215
▁Relaxing	-12.8216
▁cardboard	-12.8219
▁($20	-12.8222
▁Previous	-12.8225
▁Bondi	-12.8225
▁Invalides	-12.8228
▁colada	-12.8228
▁shoppers	-12.8232
▁Mega	-12.8235
Will	-12.824
▁105	-12.824
tri	-12.824
▁convient	-12.8241
▁tick	-12.8241
▁toiletry	-12.8242
▁Brunch	-12.8243
▁Serrano	-12.8243
▁grotty	-12.8243
Old	-12.8244
aw	-12.8245
OO	-12.8247
▁Sh	-12.8251
▁survive	-12.8251
post	-12.8252
▁dreams	-12.8253
▁Philadelphia	-12.8258
▁nowadays	-12.8258
▁doable	-12.8258
▁backpack	-12.8261
dont	-12.8264
airport	-12.8269
ental	-12.827
grade	-12.827
pin	-12.8274
▁drier	-12.8274
▁shipped	-12.8274
▁rats	-12.8275
▁expe	-12.8276
▁Haven	-12.8279
▁risers	-12.8281
By	-12.8281
ern	-12.8281
▁martinis	-12.8281
▁stretching	-12.8282
pad	-12.8286
RT	-12.8286
▁Culebra	-12.8288
▁Palomino	-12.8288
▁Epic	-12.8289
▁Travelling	-12.829
▁Through	-12.829
▁heartily	-12.8291
raw	-12.8295
▁mate	-12.8297
▁upwards	-12.8303
▁unimpressed	-12.8304
▁suburb	-12.8304
▁foremost	-12.8304
▁TST	-12.8305
▁Duck	-12.8309
▁arch	-12.8309
poor	-12.831
▁nickle	-12.8313
cel	-12.8313
▁hor	-12.8316
▁Char	-12.8317
▁Barri	-12.8318
bon	-12.8319
▁Tegel	-12.8319
▁Health	-12.8319
▁HHV	-12.832
▁mayan	-12.8321
▁bypass	-12.8323
▁churches	-12.8325
▁Har	-12.8327
▁Told	-12.8327
▁protest	-12.833
▁Auberge	-12.8334
▁Ugly	-12.8334
▁manhattan	-12.8334
▁curry	-12.8334
▁cranky	-12.8335
▁accents	-12.8336
▁operations	-12.8337
----------------	-12.8339
▁Ram	-12.8339
pat	-12.8342
▁gr	-12.8343
lift	-12.8345
▁coloured	-12.8345
NE	-12.8346
▁beleive	-12.8349
▁Shelter	-12.835
▁Fridays	-12.8351
▁advanced	-12.8353
uck	-12.8353
▁Moulin	-12.8353
▁Gre	-12.8356
vol	-12.8358
▁locking	-12.8359
▁emp	-12.8363
▁westin	-12.8367
bling	-12.8367
tent	-12.8371
▁Moscone	-12.838
▁Sergio	-12.838
▁creek	-12.838
▁unimpressive	-12.838
▁parallel	-12.838
▁va	-12.8381
▁pains	-12.8381
▁stingy	-12.8383
▁Pu	-12.8385
▁PER	-12.8389
▁Set	-12.8391
▁Twin	-12.8391
▁tones	-12.8392
▁chilling	-12.8393
▁Peabody	-12.8395
▁exellent	-12.8395
▁Botanical	-12.8396
▁Walgreen	-12.8396
tered	-12.8396
▁Strange	-12.8397
▁eventhough	-12.8399
▁uber	-12.84
▁districts	-12.84
▁rusted	-12.8404
▁Sub	-12.8406
▁freebies	-12.8411
▁relationship	-12.8411
▁qualify	-12.8411
...........	-12.8416
▁Comp	-12.8416
▁fajitas	-12.842
!!!!!!!!!!!!	-12.842
▁pal	-12.8422
▁Julie	-12.8422
uch	-12.8423
▁jacuzzis	-12.8423
▁qualit	-12.8424
▁6-7	-12.8425
Occitane	-12.8426
▁congestion	-12.8426
dio	-12.8426
▁taught	-12.8426
zer	-12.8427
▁MBS	-12.8428
has	-12.843
cially	-12.8431
\	-12.8437
▁brushing	-12.8439
▁tart	-12.844
▁Tribeca	-12.8441
▁immigration	-12.8441
▁mezzanine	-12.8441
▁sheraton	-12.8441
▁Fusion	-12.8441
▁PAY	-12.8442
▁uneasy	-12.8443
▁Trying	-12.8443
▁threatening	-12.8444
▁italy	-12.8447
▁heaters	-12.8447
rg	-12.8447
▁Season	-12.8449
aring	-12.845
▁Ray	-12.8454
▁swimmers	-12.8454
▁fragrance	-12.8457
▁occupant	-12.8458
▁stag	-12.8458
▁cuz	-12.846
▁overflowing	-12.8461
▁swiftly	-12.8462
cook	-12.8462
▁craft	-12.8463
hing	-12.8467
▁technical	-12.8471
▁College	-12.8472
▁Urban	-12.8473
▁suprisingly	-12.8473
6)	-12.8473
ars	-12.8474
▁tune	-12.8475
▁MD	-12.8479
/9	-12.848
etta	-12.8484
▁hideous	-12.8486
▁munchies	-12.8488
▁Funny	-12.8488
▁utter	-12.8489
motel	-12.8491
▁tur	-12.8491
lets	-12.8492
END	-12.8493
ora	-12.8494
-21	-12.8495
▁descriptions	-12.8497
▁soups	-12.85
▁Unit	-12.8501
▁insight	-12.8501
bl	-12.8501
▁cooperative	-12.8503
deal	-12.8504
▁uneventful	-12.8505
▁restrictions	-12.8505
▁Corso	-12.8507
▁proposed	-12.8507
▁Bull	-12.8509
ici	-12.851
▁surrounds	-12.8511
shaped	-12.8516
▁Exceptional	-12.8516
▁wealth	-12.8518
▁orlando	-12.8519
▁Greenwich	-12.8519
▁inexperienced	-12.8519
▁Airways	-12.8519
▁danishes	-12.852
▁resteraunts	-12.8521
▁drainage	-12.8521
▁peso	-12.8522
ended	-12.8523
▁moves	-12.8524
▁stra	-12.8526
▁spe	-12.8526
▁Needed	-12.8527
ere	-12.8533
▁dimed	-12.8534
▁avid	-12.8535
▁kings	-12.8535
▁Boma	-12.8536
▁americans	-12.8543
tty	-12.8543
ban	-12.8545
arily	-12.8546
▁2008,	-12.8547
▁promising	-12.855
▁koi	-12.8551
▁scuffed	-12.8554
(4	-12.8555
▁onion	-12.8555
▁Ah	-12.8556
Un	-12.8559
▁noodle	-12.8564
▁Cheese	-12.8566
▁fails	-12.8566
▁enable	-12.8567
snack	-12.8574
PS	-12.8578
▁fisherman	-12.8581
(13	-12.8582
▁Following	-12.8583
▁Single	-12.8583
▁$100.00	-12.8585
keeper	-12.859
microwave	-12.8592
▁Needs	-12.8593
jour	-12.8593
ID	-12.8593
▁crews	-12.8594
cereal	-12.8595
▁pattern	-12.8595
pit	-12.8595
▁heritage	-12.8597
▁colonial	-12.8597
▁$30.00	-12.8598
▁accessibility	-12.8599
▁therapist	-12.8599
▁whisk	-12.86
▁minuses	-12.8601
illo	-12.8601
▁goers	-12.8605
▁2*	-12.8606
▁Lan	-12.8606
▁mechanical	-12.8607
▁Share	-12.8611
▁Mum	-12.8613
▁width	-12.8613
ided	-12.8613
▁toothbrushes	-12.8615
▁FI	-12.8616
▁CRT	-12.8616
▁consumed	-12.8618
central	-12.8621
ican	-12.8622
▁Chili	-12.8624
▁$199	-12.8624
▁temper	-12.8625
urs	-12.8626
▁rounds	-12.8628
app	-12.8628
▁BOOK	-12.8628
▁Firenze	-12.8628
▁atmospheric	-12.8628
▁snotty	-12.8628
▁managing	-12.8629
▁attentiveness	-12.863
▁funicular	-12.863
▁imp	-12.8633
▁sweaty	-12.8635
▁Loud	-12.8643
▁overcome	-12.8643
▁Artemide	-12.8644
▁scalding	-12.8644
▁Fontana	-12.8644
▁Travelzoo	-12.8644
eed	-12.8646
Mon	-12.8647
▁Rental	-12.8648
CA	-12.8649
▁vo	-12.8649
▁bl	-12.8651
fre	-12.8651
▁boiler	-12.8652
▁gained	-12.8652
unfortunately	-12.8655
dos	-12.8659
tar	-12.8659
▁asthma	-12.866
▁Motor	-12.866
▁Johnny	-12.866
▁upto	-12.866
▁Romance	-12.8662
lling	-12.8665
▁cashier	-12.8666
▁randomly	-12.8668
▁bathtubs	-12.8672
▁hassled	-12.8672
/26	-12.8675
▁Romantic	-12.8675
▁emphasis	-12.8675
▁unfamiliar	-12.8675
▁Anyhow	-12.8676
▁Agent	-12.8681
▁vegetarians	-12.8681
tie	-12.8683
sk	-12.8683
lem	-12.8684
▁celebrations	-12.8684
With	-12.8685
▁Land	-12.8685
.20	-12.8688
▁Fan	-12.8689
▁cur	-12.869
▁thoroughfare	-12.8691
▁Wicked	-12.8692
▁install	-12.8693
▁boo	-12.8693
war	-12.8694
▁situations	-12.8696
▁production	-12.8698
-14	-12.8699
▁64	-12.8704
▁trim	-12.8704
ively	-12.8704
ggy	-12.8705
▁revolving	-12.8707
▁paella	-12.8707
bury	-12.8707
hill	-12.8707
ova	-12.8708
print	-12.8709
▁panels	-12.8711
guest	-12.8713
cept	-12.8713
▁discourage	-12.8716
▁breathing	-12.8717
▁booths	-12.8717
▁airconditioned	-12.8718
▁Employees	-12.8718
▁uk	-12.872
▁ethnic	-12.8723
▁PRICE	-12.8723
Hi	-12.8723
▁failure	-12.8724
couldn	-12.8726
mmer	-12.8726
▁staircases	-12.8727
▁towns	-12.8728
▁exists	-12.873
▁vey	-12.873
▁Pierre	-12.873
▁upsetting	-12.8731
▁vacuuming	-12.8733
▁hob	-12.8736
▁matching	-12.8736
▁citizens	-12.8739
▁Bosphorous	-12.8739
ira	-12.874
HO	-12.874
firm	-12.8741
▁Ordered	-12.8742
▁Girl	-12.8743
ously	-12.8747
▁birthdays	-12.875
▁tra	-12.875
▁Lack	-12.8751
▁maneuver	-12.8751
▁cooks	-12.8751
▁walkers	-12.8753
ATE	-12.8753
▁Stone	-12.8754
▁Fernando	-12.8755
▁faux	-12.8755
▁drugs	-12.8755
▁$12.95	-12.8755
▁thumping	-12.8757
cie	-12.8759
▁Luxe	-12.876
rim	-12.876
▁alleyway	-12.876
center	-12.8761
▁leftover	-12.8764
▁RI	-12.8768
mos	-12.8769
▁becasue	-12.8771
▁rumble	-12.8773
▁odors	-12.8774
wish	-12.8775
▁role	-12.8776
▁Hallways	-12.8779
▁2002	-12.878
Everything	-12.8782
▁15-	-12.8783
towel	-12.8785
▁consecutive	-12.8787
▁$1.00	-12.8787
▁mint	-12.8787
hang	-12.8788
▁matresses	-12.8789
▁pathways	-12.879
▁broom	-12.8793
▁bumps	-12.8794
▁midway	-12.8794
gging	-12.8796
okay	-12.8801
imi	-12.8802
▁seldom	-12.8803
▁cruising	-12.8803
▁Matteo	-12.8803
▁Driving	-12.8803
▁trevi	-12.8803
▁Torre	-12.8804
▁insufficient	-12.8805
ida	-12.8806
▁Boys	-12.8807
▁pest	-12.8808
▁Upgraded	-12.8809
▁cheer	-12.8809
▁enforced	-12.8809
ffe	-12.8809
▁sampled	-12.881
▁objective	-12.881
..."	-12.8812
▁postcards	-12.8814
Clean	-12.8814
▁dash	-12.8815
▁wit	-12.8815
▁ru	-12.8816
▁illegal	-12.8819
▁Ginza	-12.8819
▁savannah	-12.8819
▁COLD	-12.8819
▁grandparents	-12.8819
▁sang	-12.8822
-26	-12.8823
▁fog	-12.8825
▁linger	-12.8827
▁colosseum	-12.8835
▁velvet	-12.8835
▁numbered	-12.8835
▁cherry	-12.8835
▁justified	-12.8835
otel	-12.8837
▁Westwood	-12.8837
▁(14	-12.8839
▁charter	-12.8839
▁contents	-12.8841
▁stretched	-12.8843
buy	-12.8844
▁passenger	-12.8844
▁browse	-12.8845
▁warnings	-12.8847
▁MK	-12.8848
▁footsteps	-12.885
▁crepe	-12.885
▁ESPN	-12.8851
▁Retiro	-12.8851
▁$3.50	-12.8852
▁Route	-12.8852
▁Agree	-12.8855
▁funds	-12.8856
[...]
